54
subgraph.layer_seq.glp_0.linear1.weight 384  be45c3cd bdd57fc5 be938923 beeaeb86 3e3bb0fc 3e12ee32 beb282aa 3dc20515 3f992e9f 3e30523c be1af47f 3dd34ae1 bf00db46 bda8054e bf3091d5 bef3e6f8 3d5f93f2 3e42e1e0 bc953df2 bdade037 be2c7198 bf2255ed 3d631bee 3e4e38ce 3ea298ab bd503fe3 bf9c5851 becd3240 bd1698a8 3db79923 be72a765 bd24b5c6 bf604c2b bd484b7b be62ee01 3de1bc0f bddc1152 3d0cd7b0 3ea6ecdd 3d910071 bc42ffa9 bc41e1e1 bec0a24e 3d51b0de 3ecef53a bebdcd06 3da0be76 bed6c298 bd81c49d bdd0b790 be807fb5 3f3d6299 be452e5b 3e3481f0 3da0c26c 3e052eda 3f45097e bf2aabcf 3d870473 3dcb92d8 be167916 3d2d89b2 be746ec5 3ebb82f1 bd9940b8 3c2c0274 3e4731d8 3c8c0a2b bc7ba3fe be4b4171 3cb506f7 3d549bfe 3d6c8684 bd5b6e6f 3f504e7f bed9a3eb bce1ebf6 3d84438f 3ea518ef bd9e1174 be2c4d76 bdecc59b 3dce306b 3e826806 be860c8f be1ea690 beea634a bebc7680 3d82ad70 3db17ba1 be143242 bbeb47c9 be80e66c bf95baea bdcb1d92 3d8eab6f bd80599b bcf8494f bdea0e90 3e4e3b34 bdc8f03f 3dde57c2 bed3242a be161f16 bf935a5a bf0b4d13 3d8c07f6 3e0aa28a bdadc330 bd8af2aa 3f867a71 bea35bb5 be5f64a4 3d4eacd1 be0ff0a3 3c0355d5 bf60928f 3f83c0c6 bcf8446a bcd2f4b7 3f01b61e 3d01a6cf 3ed00572 3e9e4780 bc96feb4 be2a88e6 3d584689 3d7224a3 3b6a1b8f bf367c23 3db4c2c7 3e45923e bdd2b189 bde5a9fd bef7c8db beb3bbf8 bd6fe708 3d84f227 bdbf9752 3d66c421 3e15dc85 3f004618 bd864d06 be930655 bee5016c 3dc4b30c 3dc9d442 3da83716 beb612c0 3dba28c6 3d12a0bc 3dbc9f5b 3f5e2ee3 3e06cc29 bd9ff3b8 3e201097 bdc581ba bd899447 3f18e4bc bf0b1d6b bdbf29c6 3d9340b4 3ea892f5 bde722a6 3f8dd803 379ff67d 3daa6980 3e800c6a 3f118542 bd83625c 3f82f981 bf7dd7e3 3da064dc 3dfd5ead 3dad8d3f be36ba90 3ed0bc20 bf7588bf 3e2ffbf2 3e2c0dd6 befc2896 3abf6006 be91bffb 3dbb871e bbbe5bb2 3d4404d1 3dee9ff9 bdc78e9d 3e116483 bf619a2b 3d2f1437 3d8deb71 3e01b886 bda1472b bf8960ac 3efdb12f bee8c5e3 3e26eba6 be93654c 3e05535c 3e68a0a1 3d51e93e 3d9de694 bdf72985 3f5fed46 be11db97 3e2fcc4e bec04396 3d6f6807 3df734fe be65bfa3 bcb845a8 3ede0100 bf122a94 3e0ee141 bea25e82 3d273c1d 3ccddc7d 3f22b6cf 3f01f494 bc6c7c2c 3dcce285 bec22b5e bd0dd0dd bf4d6dca 3e2fd751 3cde8035 3e3185dc be7d2f17 bca08824 3ea7c8d8 bdcfb3ca 3dfd4832 bcfd4151 bd0967e9 bd6526d2 bf36210b 3e1adb03 bcac2fd9 3d9ed1a6 3f0442ba bd4a441e 3d4b7b9e bee31ee6 3dc0eee0 3e2dcbf7 be96b8cd be2ff2f9 bf34884e bf184ea1 3d3eb946 3e3916b2 be20a1c0 bc82a913 bf2af056 3e6c16d8 bd0aa60c bc1cc461 bc499dcd bda7021e be7d5734 bd6257b3 3d688f4f 3e25f739 bd81f555 be079305 bf2aaf61 bf1b3cc9 3d4c0cab 3da422b5 3e6d2e5d 3d02ee8e 3fb325fc be5bc86d bd3438e1 3a02343f 3cb2623e 3dcd06c0 3f03aa74 bf8f172a 3dcb1ce2 bd804639 bdd65ef8 bd80378c 3dbca13f 3e631e33 3d0c7ac0 3e4468cf be5a174c be0f19a1 3e0412c2 bee4729b be047dc6 3d9f1bbe 3da1e03b bd83004a 3ecaf121 3e128b3d 3dd75ee1 3d846e74 bed30d34 bd0fdc3f bfb88146 be16a3df 3db766d2 3e575b20 bdb176dd 3d0bfb6b bf13ca4d 3f9711f0 bab25ff6 be35aa6c bd8cfdd0 3d8624db be340d85 3db3b226 3d236e3d bc2d71c2 be031050 3ce3c325 be24e63c bd801598 3c2cd07f 3bb09431 3e2ef256 3cd6e1cc 3ca28421 bf232520 3dee15d6 3d68a8b5 3ec8dcb9 be1db9fa 3eef1059 be155978 3cc5267c 3e34c679 bd211c16 bd9160e5 be93ebb1 bf2c32ef 3d2e4f29 3e17a61f 3d90fbb1 3db0e0bf 3f92477a 3f13a90b be467dc2 3cf28ced 3e99d0d7 bdd8bf4e 3f7e04fd be31de5d 3dac2b6d 3d8981cd 3e0c0320 be0911e6 3ef94202 be01796a 3e726104 be4a38f5 3efd06f7 3ced7204 be1b52d0 be5d51b9 3d3feaed beb47517 3f2fc470 bb4159a2 3f446a14 3f2b3977 bd26fe13 3de4a0ec 3dadb71a bd917ae4 3f713509 beda308f 3d834ff9 3d639a25 bd172bfc bd20262a 3f1f4a10 bd9124d7 3dac71aa bcdd564d
subgraph.layer_seq.glp_0.linear1.bias 64  bd0b1c1a bce9c697 bbd10752 bb6b1541 bc9c7c83 bc99bcb0 3ca6df3e 3ce87af5 3a926f9a bcf0a860 3c82872c 3cd7cfc9 3d722e58 bd846860 bd2247d9 3e1a9264 bc518aa1 3cbab9ff be2635e9 3cbf0248 3d10680a be8a5522 bc683d0e bb98b4a7 3c9b6875 3cbb86fb 3cd0bc70 3cd1500d b99663e9 3cd64bb6 bb6963e1 bc934c17 3dc9b50b bd167b1f bc4009cd 3d84eb24 3ac34ce6 3c7d20ce 3c995de3 bce1f4a5 3d69efe6 3c929e6a bcd33301 bc4507a5 bcdd92cd bc074bd3 bc4bebc9 bbdb7c06 3cb51355 bcd787f4 bc713871 3de8f820 3bcb3c14 3cf2f95d 3caaa819 3d1c68c6 3d0f58f6 bcb7915c 3cea5045 bd584da3 bc844d58 3d4363b6 bd071161 bbf868bc
subgraph.layer_seq.glp_0.linear2.weight 4096  3e041511 beb8c8fc 3b979f8d bdc1a8f2 3e96ace7 be1ee7ca bdc47bd2 bdb9ffa7 3e3976af bd2943ac be999750 3a052a5a 3df938ed bb3ffd71 bdc3ecb0 be32bd3c 3dbe17eb 3dad4e38 3e253e15 bd4f75d7 bf04601b 3d5d920f 3e316880 bef2b9b6 be1bc7ca bd57fa3c 3e2c4733 be18562b bd1aabac bdd8a5c5 3dce5e05 bea7f6ed 3eb5ec70 bd68ef1d bd39e80f 3cf0dad3 3e27a2fc 3df8f123 bd6eb170 be3ea6cc bdbef6e5 3cf8f286 be2185b9 bd2d4283 bd418f01 beeaaf35 bd611c7d 3e436135 bbe47cf7 bcbb55ba 3e19b340 3e826d62 3e302706 bd9ed94d 3dc2563f bdfd4747 be1930a3 be29803b be4d85cd 3e089da5 bd763666 be8a07dc 3ddade81 3e05115a 3d51e3ef 3e37e1c8 3dcd1653 3df889bf 3ed4b5b8 3d523f12 3e0a0e27 bc050362 3dc09179 3bbd5b65 3cf8cb06 3d5d760d 3e496411 bdc92b82 bd74c85c 3dce7537 3cdeeda7 3b376cb8 3df95af5 be16bd31 3e4bb620 3d2891fc 3e0ae739 bc0b5101 3e17bb5c 3d907ce8 3d183b42 bddcd0b2 3daa0226 be365566 bd4a8367 be7d714f 3d98a1a0 3d4faf16 3d772768 bcaea4da 3e307bd6 3e136d62 3d8a51e3 3e6d1f96 3cd68cc8 bdc0f492 bda19dbe 3e1180b8 bd7293f8 3c7f8827 3d91b612 bd85d891 bcf35042 3deb7321 bd80d9c0 be0da9f6 bd5922f1 3e4e6214 3debbbe9 bdbb6981 bddce971 3d86d40a 3dc346ba be077b6a 3d476759 3e2df776 3d3d6e56 3bf17687 be296ee7 be9e7e84 bd38dcbf b9b63ef9 3d7a8475 be802572 3d4877ae be5e93cb be07cb3e 3cf02a44 3c4e50ef 3d322be9 3eddd30f bd80b968 3da5b8ab be9b2047 3dcf6615 bb92c7fa 3ee3da5c 3ca7cb9d bc637727 3d57b527 3e26f65c bdd4606f 3e0ba831 3c3dbeec 3e299437 be685f47 3e4cae44 bd4ad0dc bc9c94b6 beed269a 3eac2be9 bb6f1e2f 3e30275e bc3cfb65 3dfb5351 be272fc2 be0a0f22 3d0ecef3 3db7d660 be01afba bdc3e7ac 3be5e6ea be8377b2 be0ce9a3 be1fd7d8 bc15ebd4 3e2845bb be7ef07a be2c5527 3e906c72 bd16941a 3d672edb bc867a58 bd8c428f bd961e52 be10b8f1 be3cfd66 bc4cc5ae be356027 3e545d1c 3c8a0c88 bd5634c0 3d90bff3 3dea5ac2 3e1a9526 3c57fd20 3c0d1545 3e98c04e 3d9d23aa 3ddb2bbc 3dcad3ee be41e223 3e04cbd9 be06314c 3d6b3463 bdadda3a be38a56e bda2867e 3d2e64f7 3e267e9c 3e0a0b33 3d7ece47 3f1c910e 3d1f2613 3de5e13d 3f162439 3de9cd52 3d006973 bd338c83 bdb971e1 3d8a08a4 3d4fa025 3dad5204 be4d1e08 3d543b79 3db29b7d beac2af8 3bdb5a94 bdb4aa8d 3e2be736 3dcc951e be29d702 be2272d6 bdd1281e 3e274442 bcf316de bda4b358 3ef11358 3d643532 3da0ba3a 3d4743bd be552ab8 3d1c666b 3e1f4f83 bd8047d3 3e13aa65 3cfcccf9 bde0d0a6 3d9dd531 3df01c95 bd42e9b2 bd4a0b66 3e7ce7a8 bdb27e4b be0ffcbe bdd87dfb bdfae487 3de5456f be32e0a8 3d6f13a0 beb5abab bc062337 3de81f03 bdbb314b bdd7fbff 3de328a4 bdca406d 3d16031b 3e664aa9 bcb25c18 3e0cc28e 3e21a2e9 bd760a64 3d900e8c 3f0e8cf1 bceb618a b8c57078 3e3ee206 3d995e7c 3d17eea3 be6ed0c4 3e6cc640 3e5c77c0 3cdef8de 3e87e989 3e0895d8 3e32f3e4 3ed1d056 bd93e297 3e35d516 3b215c50 bdda8511 3d2651ab bcb2dabf 3dbbde9a bda929ff 3dc77299 bc617617 3d58e738 3d111e32 3d0e9516 3e7839ce 3e842f8b 3e05cdff bdb70df7 bd04576d bd8f61b9 bf1741fb 3e179e94 3e27f482 3d23d651 3d3c6aaf 3e27f9dd 3e99909c 3e0f933a bccaa696 3d80def0 3de49d77 3dbec190 bd887eaa bdc2cf11 3df12cce 3d33d3a8 be36c2dc bdd53cd2 3e67d31c 3e4c76d7 3d9a2e85 be0e80ea bc745d88 3e649913 3d94ef3d be58812c be8f5c6d 3d3c0e35 3e33e3d6 bd984b3e 3d72fa80 bc395c41 3e6bc1b8 bdc41a8c be58a8f5 3db60a15 be820866 3e960ffe 3e1f6236 bdba8b07 bea64f8b be398228 bd86f427 3ea01c96 3e528855 3d5d056f 3b9b89f8 3eabf586 3d9e2c9a be4907de 3d227c76 3e464a1f 3e82a17f bead1f60 3e316ed7 3db51920 bde53a0c 3dd96839 bd668251 bd81778d 3dfc1a74 bdf74f2f bd91371b 3e885782 3e42bdae 3dd4ad48 3e14a1a6 bd4bb0be be80bb04 bea78516 3d04159f bbe2d5b1 3de7ab09 beb4b4a3 bdce6baf 3d2e866d 3e1c30f3 3e7c63a1 bd9644a8 bd3810c3 bdcb9eb5 3e3348b4 bd000886 be169834 3d8671c6 3dba99d2 3e21497f bd90c019 3e0505ce 3e2361d4 3e50b525 3deab503 be1c2a4a 3b51fc1d bded1943 3f77be1b beb08659 bdffce6f 3d86d040 bc99b931 be17fb77 3d8b1253 be967b3b 3e8f2968 3e4c2843 be8994ac 3d9b5458 3df03cef becf9a58 3dd621b0 3e1cc607 3e413b55 3e0ba1b2 ba9ce4c3 3d2f683a 3e2c7cda 3cdbe174 bcebc09a bd3f618d be8cbe8e 3ddc2b4f 3dd16b4b be282569 3afdac02 3e36ea29 bd3aa91d 3e208b99 3e016c21 3f02f7bc 3d5b4f0c 3dd6416d 3df19a02 be162f1b be8b767e be7166b1 3e30044b 3e9a5736 3deaeba7 bea899c2 bc7cec64 3d31288c bda2ac41 bdc355cb 3deaec61 be5341f3 3d8415d7 3d58a0e7 be85306e 3df1af30 3ded424d beaae9f5 3e1cb0af bea49d08 3ded6127 bc890cb2 3bdfaa4c be8896f9 3e1ebcff be9a88dd 3d50534b 3ece86c9 3e579f61 bea41c9b 3a1ec5ad 3cbed4d9 3d9e3fd6 bdec5544 3dc4cd78 be480551 be82b093 bde36bc1 3e37b127 bc8ded68 3e810ac9 bcf0483d 3da77f86 3d7d491a 3e3178ed 3dc86b34 3dea2643 bd9a6c17 be4bc76a be4f119e 3db1859c be00de8e beb29faa bee18ebe be81686a 3eb8dec3 3e537684 3c6115b2 bdc8b6fe 3e5ffa2a be495161 be514039 bd8f3777 bd9da2de 3d830781 bdc8f127 3d87bbca bd211c9a be1f37cd 3e53336f 3e0c0da0 be1d8578 bd9af982 3e63c6f6 be45b48d 3dbb2fa9 3e4f31da bda07059 bd36fae6 3e37ae17 bb1259ca b69ee7d8 3e749ac3 be2c3259 3e58fa37 bdd68dfa bdf84095 3e65a9a8 3dc59f16 3dee1153 bd01dde0 3cc308aa be9366e3 3e1f26f1 3e44a82b 3d4884a6 3e21803f 3df50230 bc0c685f 3daed6ae be6f9a48 3dfd35ba 3e15a997 3dc8d5b9 3e8d2c7f 3e48bd12 3ddea539 3e05d987 3cef9feb 3d68d704 3e237470 3de055db 3da70fc8 bdff2fa9 3e452956 3d092179 be0c6926 be4604b9 3e673d20 bde99935 3e069b17 bcf712ca bd99045e beda9f25 3deca324 3d80e9a7 3b8b889b bcc571cb be3cb5d1 3e8238c6 3d278f4b bdb2c6c0 3c96aa07 bdee4990 bd210d9b 3cc35738 3e827128 3dae42ed 3dcbed89 3e0072fe 3d316271 3c8c4b94 be4e55f5 3d9d56aa be9de842 3e10cead 3db67df1 3e13c6cc 3c718f5d 3dbb3232 3e92d607 bc9e372b 3e01d7d4 3e59b490 3e2a6fb6 beb10c60 3ba45fe2 3cb716ff 3d9123b0 becdd073 3c87e8c3 3e3251d4 3cf62275 bd7b5424 3e01a32e 3ea1ccf0 be5dd7fd 3e7b7faa be337dc3 be2f1092 be1e7bbb 3cb86879 bd2cd86b 3e02a17f 3e2bcf95 bd102dc9 3e1fcdf1 3c1e2aa2 bed04a5c bdf3e772 3dacb585 3d422bda 3daa3baf be159cdd be808365 3e5d4bd3 bcb98e59 be7b39b7 bded9315 bca3310f 3dce2ea5 be3fa985 3e1dc84d bdf2dc93 3e8de73a 3e9c7b28 3a9a39ae 3d530c16 3ebd729e 3e932a7b 3e107066 be169b4d 3cbdf747 3e3f0a21 3d97fd6b 3cd1baa9 3dda99b1 be511c4d be40262c bd374665 3e1f6aad bd9407ff bea9e2df 3e424405 3e22f139 3e17edc6 bd28a680 bdb380d6 3edb12d9 3d0ae8df 3e4e22f5 3cd38da7 bd362870 3e9cd3cd 3ca6eadd 3e4ca193 3c836055 bcee4628 bde8cf0c 3e3bc47c bdec65fa 3ebc443a bcc910d3 bec13748 3dcf210e bda7dd85 bd85548a 3e0dfa29 3bed9e09 3d2b98cf 3e1c2f73 3e51b4d4 be3a2177 be18ee1d bc125561 bce8d1c6 be9e65bf 3e0a21ab be6a4ad5 3e2bc1ad 3dddacb2 bc8f7057 bdcc5a64 bb2f1ab0 3babdeda bda04398 3de57958 bd1d89d7 3e587b37 3cf1fd3d be7fa9ab 3c943536 bddcb774 3e1ed369 3da4ac5b 3e9e91d9 3d1e0b70 3e005235 be564cf8 be17d854 bcde79b1 3dbc5a06 bdd2a4d0 be81916c bd052cf3 bdad41bd 3d1d209c be305a9d 3c1b2678 3ea739b0 3ce0d98e 3d494a33 bdba0001 be604830 bee03120 3dbf0a46 be014be1 bdabf2b7 3e3f3dee be5666d8 be5947cd 3c06c08e be733c6d 3de0daaf 3dcc2aed 3e80fc85 be3aa025 3e1594f1 3dab69cb 3e00ff90 bd89b7ef bdb6bdcd bc00a92d bbf703b4 bda7e823 3e0af98c 3cadcaa0 bdded661 3d55a125 3dd18374 3dd2f468 3d91929e bdf281df 3d974bd7 3d861881 bdf00f9d 3d5458d4 3da4ab1b be198c3d 3e316121 bc876d82 3dd25842 3e232dcc be04fe0c be994a1b bef4e48c 3dbb6d39 bc4bd28d bdca117b 3e39d5ff be2d7d75 3dca79f0 bdacf41c bcdddfd0 3e405e61 be7978d3 bde2bece 3d046cf6 3e4ec293 3e0f7018 3d99ff44 3d3e6c52 3caa7a41 bef52567 bb3bec73 bceef120 3d67fd6a 3e9d19b4 3d9bb003 bdd55aa9 3e0bd31f 3e1e0743 3d33cb76 3dd70aa3 3e835a7c bd19960f bda67f19 bd25e8ec bd9a06a5 bcbedf65 be09e2b4 3e122025 ba5793c1 be5b8db6 3e009cf3 be335384 be07001a 3e115af7 3c97e02b 3dbd2ce1 3e4a769f bc106738 3c73e9a1 3e1f853b bef4cbf8 3a10fd08 3d8b761c 3d2adb29 be6e9d56 3f037358 3db2a4ac 3e35b665 bde6b075 bd6e6c17 3dd3fe82 3ec34055 3d7cab27 3d90a9a3 be0f1357 3e704d98 3cd1c00b be59a968 bdbec60e 3d3d1609 3e3ef847 3af94e73 3e020734 3da8fba6 3ec2ba83 3e49687e 3b3d6384 bed0d744 3dbdc096 3da8b296 bdaabd2a 3e120572 3dd427a8 3f11a738 bdaf9448 3b288670 be15f1f3 3e867154 bdd4a08d be650dc8 3e21f726 3f28f261 3e686416 3e4e9854 3e112cb9 3bc6ca8e 3e4a8a41 3e37513c 3d0a3cc8 3e01139b beafaa4e 3d79d28a 3de90719 3e91e274 3e543ce3 3e11f0e8 3dfe575c 3e2a69f9 3e754749 3e281a00 3dc416b8 3da46dda bde59141 3d51ade0 3e178abb bdf8d4ac 3c99255b 3d26bc67 3bb929c1 bf71229a bdbce32e be5484a5 3ce17251 3dcb4f84 3d64609b 3e929d2b bca17509 3c2636f4 3d06a91c bd0a8836 3de93433 3daa3523 be219913 3d208963 bd81a06d bdea7971 bd8161d6 3ea57df2 beb6c9b0 3c859515 3e528ffe be3a5fa2 bea59a26 3db491e5 be1d82d7 bd37401b 3dedfbc4 becbd323 be263e75 3dc8cd3e be0804c7 bc3d0584 3f122a93 be4b882c bdf0b74a bf5be57b bdbfb318 beb57290 be3c98ee be2b574c bcbf81f5 bd454864 3dc1bc42 3d89290e 3e9132a4 3d185b71 3daa8ef9 bdc87395 be7b75b5 3cbd0d38 3c516039 3ddf6a8b 3d32a7fa bd142967 3e69956b 3cb02da3 bd86943e 3df6daed 3dc989c9 3d8e37e7 bd07db02 3dd9de24 bc8e364e 3f8320fa 3dbf664a bd0bfe20 3e25ee56 bdb754e4 be00fbc0 3d1ef42f bc29acd2 be0ff18d 3e0ba417 3bb29cd3 3dc49e09 bdcf5888 3d04cd26 be675ee0 be933cb6 bcbe2cbf 3dbcf285 bdb8d94c 3d3f8656 be384caf bde7e183 3c102b65 3c0af517 3db55d27 3e18a8e2 be0cbb4b bd0bfc3e bdf5472a 3e069bbf 3e3b0b58 3d5b7447 be25fb4e bdf5bf48 3d6190b0 3d73beca be6bb46e be88cddb 3d5bab49 3e19ee4a bc83aa92 be48f3a3 3e2f02bd bdec27ce 3d8d66cf 3daea3da 3de3776f bde5556a bd9056ed 3e54a507 bdb18cec be243915 be7f4ace 3d949b51 3de826bf 3d5aabd0 bdc82dc4 bb331bd8 be725ab0 bcd9fe4a bd745d18 3e76220c be059de0 be4e2472 3e13df6f 3c0f5344 bcb889ab 3e028dd8 3e2793db bd9ad24a 3c8b3bdc 3c579602 3df6a761 beae4eac 3e3e2195 be2b25a8 be4563de bdaf11b8 be0b793e 3cc44afe 3e27da2b bd6a1570 bdf4c1b2 bd82f556 beb199da 3db9c682 3d08a020 3e26100d bd323fcb b8ef6937 bd0f5024 3e274ce3 bea6b9c1 bc670f6b 3e2db2d5 be4a5c52 bd2997ff 3dcbfb46 3d882264 3df8d91c 3eaaff51 3cf846bc bda23a66 bd31f783 be00fdf4 3e7d345b 3df8caf3 be8efde8 3dfab1d4 3d508e63 bce863ff be57a7a1 bdbcd62b 3e550bcc 3d15f9d5 3cacbe53 bd70acb4 be782a21 3e0a30a8 3d0e50be 3d8ed144 bdb871ff bda4e8f7 bc89026a 3d8f7c73 3e1f8287 be140a26 bdda0e2e 3e45e9b1 be09408f 3cb2d58d bd2a27b7 3e0461d6 3e0d1af3 3d4956e8 bd6d1883 3d248881 bd8232e9 bd15bf07 bd91b56e 3dc20785 3e29c167 3ec2b3f1 3e1bcc7d bd956ec1 bdb04998 3e103030 3dc2e1c6 bc9a09e4 bdd08df9 3ddf0d4f 3e24b411 3d0ec648 3d58309b 3d7e2cc0 be0825a1 3e4b1dc8 3eb2c0f4 3d896d39 3de21ada 3d6bc613 3e2622a2 3e6b14e2 be233560 3eef0e2a 3ebb59c3 3df29405 3e0d49a0 3ddaa312 bea688b9 3d2c5914 3e143c0a be8db74e 3e4f24f4 3df9bae0 be19c111 3dd4cf98 3db950c9 3e260c7c bd7f891e bd28461e 3d97d0d7 be1adb42 3e64e9ad 3cfb2757 3d47efef 3e65dbd9 be1e37d3 3daae015 bd6a2446 3def7c95 bcd301af be6f6da2 3dc47745 bda992e1 bd999df2 be4f3285 bd7156f8 3e1e2607 3bfa2190 3e1b0e74 3dbc2802 bda6d906 3d821c08 be111fcf bca3cc0e bd9a0cf5 3e34be71 3e22547c 3dd23fe0 3d90ab43 3e43345b be10ad93 be2e8a69 3dc10e7c 3ec49116 3e25dc30 3d63df1e bd9f6142 3d330b22 3f16524a 3e443c8c 3d56c52d be7e7c15 be8c82a3 3eae41a5 3d41f7ae 3bb6fdef 3f203c66 3e51bf4e 3e35499f 3e59fc53 3b9a45cc bd46d92e bcd5cd72 bd85ce65 3d143da4 bec8ebed 3e76e1b9 bda99db2 bd862de1 3e4e8693 3e229469 bdf2ef46 3d93459b bd7de4fe bdb60c28 3dfcb8bb bcd92dfb bc7102ae 3e06deb2 bba077a9 bc11353d 3e0b11bb 3dbf1410 3d51f279 bf6ad30d 3e2fead3 3ddc1a35 3e067f04 bd578530 3e689e77 3ece6299 be00cbb9 3e18c715 3e10e32f 3dc395a1 3c379b9b bde5e4fe bd98ba4c bce72f6d bf06a872 bb95de23 beffbc98 3cc258e7 3c499dd9 be82bdd5 bdee7e5b be12256f bc0c2fe7 bb70312d 3dcce659 3dcfdb97 bcb9bfaf be83e32b bd688bea be28bdc4 3db53939 be06edf9 bec66ba0 be51be7a bdc9b095 be098476 be146085 bdce59c6 bdeedf6f 3ca77329 bde6cabb 3d16d56e 3d39a76e be5f0b9c 3ed5b519 be746bd0 3e5d4f03 bd2600df 3c9ee22c be96881b bd4da2ca 3ce3e658 be5fdf7a 3d7f247d 3e9a9c76 bcefb197 bbe4b118 be2a9cb3 be133627 be1bef2f bda28e5a be6336aa be33b7e6 3f286d1c 3daafcab be25fc44 be85751c 3e1c2b6f be6dd3b8 bdc3a84c 3dab10b9 3d87a121 be823d64 3e0f2db5 bcd685fa be152740 3d570a92 bda01eea be32a721 3dc38dc9 be2bff48 bb99d2fc 3e9af840 3d51db20 3d9f5b37 be235f9e 3e33c63e 3d7a35c1 bdaf1a30 be03497e 3d90802d be986b0c bb78ba2c be05f968 3e4e8561 3d3c5847 3d449187 3d5a77dc 3cd0e4a5 3f395cb1 bd20c56c be74e549 3de1a142 3c8524ca 3d49bead bbe8350a 3ce5e016 bdc4d81c be75ced2 bdee8d69 bd4ec030 bd8c3482 bde7fe22 3e00ef0b bd835a73 3d0388b6 3d37355a 3e02c172 3ee4e102 be590cec be29eec6 bd8fbc95 be9148fc be2a971e bc8467ab 3df77103 bdcc2f75 3f03f3e4 be5b344b 3db84cc1 3db399f5 3d801188 3d90811e 3e0b6544 be0f2ac0 be0536eb bdcc4c8e 3deb576a 3dc6f7a4 3d98e741 bd65a587 be1a855b 3eb3a79d bd539d22 be229e10 3e140fcb 3e007eed 3e94ae19 3e02c62f bd98de57 bb21f012 be155ede 3e66c984 3e3dd668 be200ed1 bdb562fb bc9d7121 be8c72de 3dbeb735 3d22ae4a 3eba4dcf bb079cfd bdb05237 bf0f6e4d 3db7deff 3de90ac2 bd03e5d0 3da919dc 3dec92cd bd792009 3e871958 bc803560 3dd33c16 be99eecc 3ea16367 bd2af78b bcb466a1 3da3b718 3e0caeb7 3df5c139 bd58d960 bd1683d1 3d00ab82 3d5b787a be061c79 3dfd4749 3db0bc14 3e219f28 be558b7b bd4a573c 3e3929e3 bdbf3ed4 be372a70 3e809b6e be248c1d bd3755e8 bcf26768 be078378 bdb6a4f2 bd043569 3f6e2227 3e431485 be676345 3dc19a45 bb70c176 bdc2d941 3d5831b4 3d256603 3e5b67c0 3eb330e5 3ece5685 3e3f9737 3dd02c92 be218f33 3db5002f be1316a4 3deaeda8 bd880999 be162f18 be1bd184 3d77849a bda3cf33 bdf52e1e be948ffb 3ee41a69 3e3c189e be21cfbd 3ed57b14 3dac063b 3caba91c bcee696c 3db47788 3d4cd3b1 bc2c81d9 3e90de0e bc6bb1fc 3e557eb2 3e5cc037 bdbc73a6 3e22628f bdcc08f1 3bc6efe1 bd9e5512 3c59eb0d bd3634ba bd8d345c 3dca78cb 3bb27379 bcae6293 3ea47f6f bde2978b bd150778 be6cb8fe 3d4ec16a 3da99842 bd235120 bda93be0 3e990e20 3d8d5c69 bdf3ebfd 3db7a26a be719126 3d43157d be25317e 3e613fa3 3e2e085f 3d829842 bda2c2f4 3d4a29e3 3eb1cdcd bcd388d6 bc55d742 3f27e3a9 3c3e7ef9 3e263c12 3e04834c bd2c1694 3cc95742 3e895aad 3b458f28 bd2e4cfd 3cdb82fd bd24fb9d 3e6ed713 bc163334 3dc915d1 3edbe52c bb0b8bbd 3d5c0449 bdac5084 be57032a 3e269e51 3d58e79f 3e41cec6 3db8eef2 3e051778 bf279248 3e29b527 3dd5994a 3c37e566 be874ea0 be3773e4 bce5a8d5 bb7059df 3ea7a749 3cafcf4c 3d83e195 be369048 3d9a0795 3e2e2be6 3e16fd2a 3e2319a3 bd870e39 3e0524f1 be4e7cde 3e993060 be92b51d 3df30092 3e3daf72 be2ee12d bdfd4d8e 3db758b9 be724f5a be03d883 3cd52024 3ebbd420 bdb257a1 bd8d68e1 beabd2d6 3e89afa2 3d26ee59 3db897e2 be221f9d 3e4eb35b 3d9972eb bda3e9b7 3e628b76 bd273600 bd99df9a 3dc58c82 3dc462ca 3e60b2e2 3de59589 3e9bb77d bd56873b be830a75 bdc4e00c bf048900 bdaa5467 bdfb3fd6 be2d23e2 3ed57379 3f148f66 3e649086 bd7c0b63 bd580d19 3d629576 3d810b4d 3d45012a be6abe65 3e2385e3 bd906d5c 3e5ccc61 beb8511b 3e94205a bc9539e5 3c9acd1a be02d672 bd9485f8 be10577c bd68afb7 bb823459 be15c12c 3dfb81ed 3e62c1c1 bd2a1f5c bd04239e 3e0573c8 bdbb4ceb 3c8f8288 3dc413c8 bea1bf75 be34e0d0 3f4908cf bcb47807 bd137ea8 3d3c74cf be5e7797 beacc47c bd9bcb31 be07b20a be7a4ca2 3ec85ad2 3e86cccc bd2a467a be953baa bd64f908 3d1ada3a 3df08799 bd1fce96 3dfb2ba2 be372dc7 3e3c2109 be06e2f4 bcadbb31 3d7e5475 be556740 3dc09514 bc590e29 3d81aa50 bd4b8950 3de6672a bde6a9ba 3dcd8c33 3e6a58a5 bd7e36fa 3e2ab43a 3d2cfa1e 3c5d081c 3c76a2c9 be7509cf bddfa062 3cc15a01 bd4c1f4d 3c9cc6e5 3d0283ec be3416e9 3e261843 bc071e41 3e090d6b 3d937566 bbbe14a5 3da6c39f be04382c 3cdb9ff6 3de5af68 3e37e103 3cb7e47b bde41ee1 3d3f824c 3cfe3913 3e235585 3e09fb4c 3d8b61d5 bdd3c4ac 3e24ef62 bcbe83df bed311c4 3e16575b bd6600a3 3dd9436d bc23c206 bc168813 bd8ad044 3e1f57b5 3dea4933 bdb134b5 3dd64a02 3d3fb882 3e116110 3e04c07d bddbcea6 3de84427 bd81ccff 3e997a33 3e8ba0be 3e114af7 bd832a5a be36802c 3d12dbf9 3ea75cad 3dc8101d be1e9dd1 bbae1132 bc8890f0 3e856991 bd163940 3c19a8e3 be2ae246 3d2cefb5 3a54aed6 3e1b30b8 bcd2cf37 3e0dae45 3e66b467 3d839591 3dc4d4c1 bdd6a19e be88cd0f 3d2eb6f4 3e22e4ba 3ca77c6b 3e677eb4 be14ad3d 3e1b9c45 bddcfbfb 3e1c4e5d be2eaac3 3daece52 3dc4e41b 3e18b075 3d48fabf bda61251 3e2f18fd be0d939a bd5bb5a2 3d896f25 bde1c5d3 3d1f22e9 bd15dcf5 3d17df0c 3dff3173 3e076b57 3e03afd1 3d80ba0b bd8d0016 bdc8bc83 bdc95be4 3d46c686 be4f1bac be1b126f be8b4bf4 be4a738f bce2b595 bd1b4c2a bd4429a7 3dc07e85 3ce1f110 3e9afcb3 bdb58d4c 3db569b8 3d7a71c9 bdf6b35f 3db7674d be1f714a 3dfbf242 3e8400c0 bddc7fc5 bdc619db 3a814413 3cb1be59 bd94539c 3eeb82d1 bd420215 be0028da 3e4bf69d 3d98a74b bdbc0aea 3bf09325 bdd6eef1 3d4e9993 bc858c3a 3dec45bf 3e1003d6 3d9046be 3d71dd4f be111d90 bd3c7479 3e10da4d 3e1144c5 bc76caad be231eb7 3da47def 3dc15347 3e05569b bc805d36 3e0a2c1e bba1a585 bc722371 bc4b98a4 3e2d4ccf 3d93eeb9 3e8ffd48 bcd4fece bd18fd27 be8d76ba bda2fdb4 3c26e0e5 3db26789 bd0b3072 bde3dfde bd8ba5bb 3b178b1d bb78337f bddea633 3def7025 be4309ef bcad1e21 3cf6cc4f 3c8870a2 3d005a66 bd88aafe be182bcd be20e650 bdc6e70e be4663dc 3e1299f4 3e253b21 3cfb6f03 3c7579e9 bd394c92 bcb961a9 3df52c9b be176b06 3cda94a3 3d54dcf7 ba9b620d 3e175904 3e326fbe 3e2201dd 3d6da9b1 be24fc20 be5e2153 be6bd398 bde073ce 3d6e2b53 3dd1312f be245307 bcfa0d63 bcbfb4c7 bf359b6a bc49d441 bdde5582 be5bfa82 be2eb578 3d957355 bd2616f8 3d71e57a be5182aa 3e248930 3d4c5d1f bda6304f 3e20d7bb be077bd7 bd15230e bdd1f74e 3d882cf4 bde92861 3e678213 3ef1def7 bcf09b3e bce4e507 3d787ee1 3e3b0f34 bd7badf6 bf16fd62 bdf46159 be18d39d be248062 bd99529c be455b1d bd735c72 3df5505f be9432dc be293a80 bdcfc107 3e5b0e89 3d3c2196 be4fa91a be00b166 bd9b3a82 3c8d3866 be4eaddc bd61a8de 3d1bf027 3da81887 bd061b2e 3e2c86a2 3cc9b2d8 3c9f545a 3eb2ff78 bdb1ebbf bdc818d2 3e32a6ba 3c26d8c3 beb2f84b 3badfbb8 3d3d8f7d 3e065276 bd9fa691 3e1dd44b 3e2694a2 bdb70ca4 bd866d0e 3e57dc10 be3d87e3 bd669e01 3dda7acd bcff6d13 3db7f3a7 3e5d7159 3e0ad0ca 3e77bea2 be0af063 bebd511a bcb243d4 3e5d1d39 bdcdcbe0 bca5d8f6 3bfa7f2a bb40b051 ba8de7ca 3e325e4a bb3f480e bda201b0 be1b799b 3dec940e bde53c2f be40171c be402a09 3d0847fd 3d8d67b4 3e55af54 bda864fc 3e5eb66b 3d7bd379 bdf8b2c9 be6ac68e be07aa88 be1f8fe7 3dc5c457 be77a101 3d34e0f4 3d3820cf 3e42fc6a 3e122b9a be0b4e3b 3e407b88 bd8e9514 bdce41b2 bd090cc2 bea269ab 3da4a4fd bcb8f198 beb73dad bd7295fb 3e089cd3 3dd4c378 bd7f86ff 3de123ec beaaac2c bc2f32b6 be55e114 3ddf65de 3dfcb15d 3db61482 3da06106 be845ad2 bd7cc02c 3df54e6f bdc9d76d bde9b8d6 3db8aa86 be2fb7f3 bd61505e 3cb0d22c bd0c7b86 3db81071 bde6e0ea bda0f0bb bd6eb72b 3dda1130 3daed5db be271094 3e16ae5a 3e13b660 3da42dde 3e530d20 3e89d0b5 3df618f1 bda23b53 3e0006c0 be244c06 3d9df575 3e372682 be0b755d 3b45addc 3d5c7ba8 bdc769c3 3cb75ad3 3bcee78e be67a09a 3e4fe80f 3de3f50f bdd91cbd bddca249 ba26fc3c 3d81f754 bdca38de 3e3284e9 be7a242e 3e44ed9e 3e345e5c 3e00e491 bc8369f7 bdbebfa4 bdde0790 3c8c8e0b 3e204b56 3da80733 bd935288 3e211174 3d7323e6 bc75ef68 bec6ab5d bceca38d bccf68f3 bde1d94e 3e6d4958 bd931cbd 3e4a87e7 3d3de268 bd5cd015 bc6e8a55 3d9909a7 3de2263f bdbc80c6 be16c891 3ce23f49 be05b068 bdaf50cc 3d8e2a08 3e1712c6 3dbaddd2 3dfe9371 3bf191ff 3e181375 bc28d644 3b03d841 3ca12156 be0fc8f1 bea9ad24 3d97141f baa2f337 bdaf6bba 3d29edf6 3d809935 3d296848 be4d53da bd8fd212 3dbb26f6 3dd683c4 3d58a936 be2cedef 3e511be1 3e487ea0 3dffe3ee 3e25f2d1 3e87b7cd be02ee51 3e6581ba 3e7b01e3 bcc22e2a bec661cd 3e3a4426 bdd3cca9 bcf7836c bd32c0c0 3c4f5bfd bda091ea bdf2ad93 3c1bc09e 3ef55582 3dd7e045 be1431e2 beace88a bdd3d72f 3e3c767e bd940938 be74c4b9 3bcd4086 bcc7a104 3d2cdf66 3e1c34fd bca92907 3e9188cf bb34922f bebfa450 3d8978b4 3e9f8785 be1ea3fe 3d8571c5 3c8c8a33 bdbbaa72 3e17bb71 3d0e61c7 be1a9f72 be0e537d 3e3bd40e 3e432a93 3a9213e2 bdf50137 be206367 3d9b65fe 3dfa0427 bda9319b bf0220b6 bdf8edc7 3cfa5449 3c09221f bd972105 3d22d4b7 bc34392b 3bc31b56 beca05fe 3d9c9619 bd13b215 3b3bdc58 bd1df98c bd1e7985 3d20fd50 bb7edc6e 3d515280 3e897e76 3e5111dd be1534b8 3e0f9e3d bc3a82d8 3eb8c8eb 3d9af450 3e8e1d7f bdc8adb7 3da863cd 3e618289 3e565a8d bc7639ec be297176 be65dc0c be6a1e2a bda97706 bd00e3f6 3efa9169 3d48ad82 3e3b9cae bd92d8ab 3e655845 3d54778f 3deb2e1c be1d6a8b 3e6a2eab bed8ecfd be0ebb3d 3d282a5e 3e06d8ff 3e8d7373 3c9b0e9a 3db3d220 3db92809 3e64171c 3a540524 3e3e4839 bccf1413 3d378828 3e3148aa 3d84760e 3da44480 3d827b8e bd4d2fdc be064171 bf16f69e bda6bb0e 3ca801aa 3d553837 3dd02c0b 3da1b8da 3f09121f 3e2c5be1 3da0593c bebac590 bd5c3de1 3e6cb6a8 3d0c83a8 be0f5c67 be06f766 bda3bedb bd8f56eb 3ec8249c 3d4f1c81 3c452782 3e679dfb bcc01d1d bd93c302 be695022 3d12dba1 3d3ad0f0 3cde27d9 be31616e 3d96b9be 3bfc1b50 be33d201 be812186 be01ce2e be01ed05 3daf37be 3dccfea1 3e397734 3cd90e51 be289cff 3e4213fe 3e39457c be0bc62f 3bad5450 3e1758b0 be8d0946 3e302552 3e1be099 3cdbc26f 3e5408b6 bdc90110 bd134cf0 3dd80de9 bcd321fd bd68eeae be059b1a bdb5046b 3d40d936 bd4d585e 3c1c9c54 3c802e2f bcc16da8 bc9aae33 3d6d1a77 3db85cc1 3f98cd31 3ddbb2d8 3d7932b3 bd7ea9b2 bd54ed5f bc64ad5e beae6061 3df2cd0e bcd6636c 3e79922b bd0f625f be000956 3e1b521c 3dc4b9df 3e4a6cee 3e55990f be24798e bc44a742 be1d6b74 3e333a30 3e0c4fda 3daaaba4 3c9abd7e 3d544d57 3d4d57f6 3e43972e 3caff9c1 3dae4ac3 39bc3988 bc9b848f be57957f 3e999dd7 be1418d6 3dd11971 3ddfc92c 3d87058b 3ce27225 3dc3ca3e 3e169d51 3cc78868 be55582a bde8c648 bdf05b6d 3ded4ecf bd897d76 bceed6e2 3d0a69b6 3e8ae1db 3dda7e46 bbf0fc8f 3dcd451c 3d304484 3d7e9e16 be21c057 be5a1d90 be80a816 3deaa500 3d4814c4 be4e67da bcc25b5a 3d363ac2 be2626ef be2f1a4a 3bf70fee 3d2eb670 be1368eb bd828fa4 bd8ef5a0 3c70a41f be67be3b be5ddc21 bdbb460e 3e1d57a6 bd35fb20 3d38b494 3e625310 bc3c4803 3e0f8642 bed56936 3d93ba55 3e4dfb86 3f1045da 3b9ea69a bd60880d 3e81e002 bcb1e756 3e3455ba 3dfc49b9 3d8bccd2 3e57f269 be31690d 3e8555a3 3ec3f011 3eaf2b8c 3e02b6a3 bd8a53fc 3e0197ac 3cadf9d2 3ba26765 3e24747a be1aaa70 bebd545e be48e13f 3e3ba147 bd5dbdec 3d50bf3b 39156376 be1de7d7 3e508484 3e2486bb 3e5c1d41 bd7e86de 3e812872 be15071f 3da2f968 bd11771d 3e89dbde bd9be968 3e3f2675 be82b4dc bd7acc8c 3d89cbd1 be7520c9 3e92e0d3 3dd79539 3eb204e6 3da7322e bd16616c bec8b5f3 3e0e2b8d 3e0e9d67 3d1f3338 bd78f6f2 3e4f39d4 3e2e950b bd48a72b 3d986847 3e5031ff be958ec2 3ca48530 3df163be 3c3cd2df bde3c8f0 bc6f4090 3d14fdf7 be3f043b bd9f789d 3a92cfbb be50a407 3d4407e3 be8aef72 bd9c410d bdcd26de bd701367 3e0afb4b 3e0f12d9 be9c1d5b 3dd234f0 bd68af07 3e88b178 3dbce10b 3e480636 be999c5e 3e0aabc6 3df90b51 be385664 be16590d 3d8ea349 be152774 3e06166f 3e019aa2 3d919458 3de3f6d1 3c8e9556 be897018 3db33f86 3de0c6aa 3e10883e bc9ce6ea 3d4f059c 3d74a1f6 bcf94df5 bd45b0aa 3dca32bc bdde1983 3e0a04bd 3da19952 beb22038 3dd100f7 be1227f7 3d269181 3dc91619 3ea473a2 be61a7d0 be211b17 bca4a59e be1c4f9c bd7a9f3a 3e1d3d79 3de658a0 3b27f80a 3e2997aa 3dadef74 3e188290 3e044ed1 3d75ec01 3e8a21ba 3cf16df3 bc59cf62 3e4dfb47 3e274890 3e11838e 3e13c959 be173b0b beee47f4 3e058cc0 3d338dda bdcb02f9 bdc03197 3de89539 3df438e2 3e1fa5f5 3e19c7db 3d114b0d bc9a76cb bec16eb8 be59fd39 be1a2f20 3e863be0 3e3af185 be645a5e be1132f1 3e705d9b bdfd48f3 bd21f7a1 3d5971dd 3e45fe1c 3df25c69 be67fa91 3e756467 3dfa1430 3de4c801 bdd50903 3de8ce31 bdc129b2 3dc92f2a 3c8efa7e 3e229c72 3e276f3a 3cf837a7 be50907c bd8111fd 3d424b5c bdb621be 3d66591b bd7381e3 bd9d230c bea5c590 be0d5a28 be1e2d31 3e4fe4bf 3d99510f bd61817c 3e61062a 3da3fe6c bf0aa1c5 be4a364f 3e761e4f 3d5c208a 3ddc97af 3e7b3cd2 3e810d8f bda896ba 3ec115b7 3e703f7f 3e59eaed 3e52205f 3d01d83b 3d84ab43 bd08a714 3e89be5e be97bfda be049d07 3d04b6b2 3e845443 bd8a51b2 3e05d116 bf0b17ce 3e36eb78 3ec6162c 3da10c62 3d0cb789 3cc8484e 3e3c1630 3c811677 be8563c5 bda3aeb2 be1312c4 be1bbbcd 3e2024b9 be2cef23 3e1e06d5 3dd1356b bded8058 be556b44 bd16f5fa 3e791472 bc956125 3c9af0cc bec17f96 3de7b383 bc0b1c30 bd12e121 3e34b2fa bd90a728 3d965255 3c49ec7c 3c3b78bc be0e7ab2 3db2e96e 3f1125ce 3e32c5a9 3dfa2c99 3e44788d bd82c2da 3ded34fa be0863df be036869 bdecb0d1 3e20f524 becd1f5e be50edd4 be731e74 bd484ec7 3d20fb02 bdc6f116 be054cab 3db4d4be 3e27785d be34e40e 3db01f29 3ddc2b42 bc46b894 bdbcfb94 bcdd3353 be53e6ad bdc5c8dc be3ddcce bf70a8a7 3da79cac bdab84e6 bbf511bb 3e81ace5 bdd34a6e 3d63971d 3dc92e36 3ea42536 bc938e41 3e35ecfb be6a23d7 bd2411a7 beab35be be7b1a57 bcc6ce1d bee95696 3f1525f8 3e0412f0 be083048 bccfb080 3ce85204 bd93456e bc212a10 3dcc8cc3 be2ea270 be61248e 3e1805fd 3ce80dba be3e2da3 bef09634 be0234ed 3e903d2c 3ddee409 be2c4adb bd3d2744 3f5f41ec 3dc58b3d bc3326be be6960b7 be4035dc be85d2f4 bb07d455 bd8b7694 bdc70e7e bdee1f0f 3ee43734 be4fc396 bc6737f8 3bf74d47 3ef16833 3e26701e 3d9e2340 be58c7d6 3c1b68ba 3d3e3d0c 3d884a5c bdfc86f7 3e95e0b5 3e61a38c 3b61d099 3d1ed7ca 3e412755 bc0e5d4a 3d45f609 bdd74ce2 3e0ec728 bdfc0858 be2b8498 3e3911b4 3e3dabc6 bd8c7445 3eafce45 3d943777 3e843d7f 3c44e081 3e5b4bc9 bd26b816 3c12a422 bda22721 3df91cee bdb72c16 3e99b353 3cbacec0 3c7d4938 3dc962ee bb7b8e2f 3de8990b 3e30b787 3d5e24e0 bd676e71 bc5f9bed bd9b3112 3e3c528a 3e41b12f 3e1734e4 3e0a0708 3d7f1607 3a85a96c bd45b4c0 beb0604a 3d65a2d3 3e473faf 3e3846c7 3e32e4b9 bd6c7188 3e1db837 3e754622 3e5ceb41 3e247bfa bdf1fb50 3ed3214a 3dcd0fa9 3d71f4bc bdd6b288 3da46c77 be247e42 3f507e38 bd2f2da2 3e110495 bddc4618 3dc83ea6 3cfffeca 3db1ab55 3cf4ecba 3e876780 3d609252 be17f47f 3eb2c9eb 3e3b4b64 3dc845c8 bd4d4c70 bc3a1fd1 bef85cde bd01d6e3 bc9e0312 bdc5c81d 3e42395b 3c85f3b0 bd816a1c bd8f7ab2 be36f20a 3cb3a32e 3d110a7d bedebba7 3edca303 3d8a2c30 bd925d28 3dbb04ac bc72518a 3ce5ccae bc687b00 3f033212 be362fcc bd0f4720 bd1f39c4 bc87125f 3d608f38 bb2f6c75 3e19ae5e bd9a455c 3d323947 3dd53e8f 3e0d7974 be10a5ec bd7a474b bd854dde bd148b29 bd934244 be210dd9 bdbf3319 bd01466a 3d72a859 be50672f bdcf97a3 3c81b662 bcd1faea 3e081544 3e4549dd bcf7da7e 3df29675 be4fda6b be4b6005 3eb088a7 3dd58e50 3c921147 bcfb40eb 3eb842b0 3c4a1bc5 bb7f3f59 bc3e725a 3e1c60b0 3d9c37dc 3d10f34a bc8863c5 bd67284f 3ecde45e be23e7ea be54ac59 bd5050cf 3effa270 bde093a2 3d77f0d4 3be8f67b bd7a8ea8 3ea7cb92 3de0459e 3d4b02a2 3e0fd39c be6823bd be22dba6 3d612ce7 3df8e431 3d3b85b0 bda5e458 be0d44d2 3bf5c438 bc3a254a 3c6f3fad 3e9e7701 3e012850 3e25564f 3e2eee1e bdcd16d5 bd3128e5 beac7143 bc36d00d 3e15860f bf131896 3dae5e68 3df28e11 3e31a01f bd218e2a 3e54f512 3ea58256 bde5ccba 3d00a367 3e3eb05f 3e6ec8d5 3e70e1e9 bd87fc8e 3c96d689 bc1a9081 be501de7 be2bbd07 3eb10ca8 3eeb4603 bd4f562a bdb7cafa 3ef1336b beb63fb6 be4fafb8 bcef99d8 3d42295b bca9ed2f bdc17590 bd91d1ae 3e1c3ca1 bdfecf06 3e7417b9 3e3d37bb bde152be bd48d494 3d0b7c5d be3a9cf7 3ea399e6 bdf88d5a 3d8006fb 3da10cd5 3cb3bd52 be2ead7b bdee5f2d bd870844 3ebb0042 3d99b1f8 be3f2844 be2e6250 be6fba82 bd8a3e54 3de97055 bd728baa 3df71810 be8ec08c 3ed0e5f6 bdf26818 be586475 be0d27e1 be67b4c5 3e15c84f 3e570079 bc226309 bc206d9e 3f3c31dd bd676b7f bdd1c7b3 be06c1b3 be4dcb0a be7ec09d 3d85f2d6 3d3763d0 3d44dac7 3d974e66 be817a98 3dee3513 3dccf2e4 bdeff700 3def3dc7 bdf33a3a 3d8e4b4e 3d1abeaa 3dfadebb bd44350d bd1e213a be249459 3e572b1d bd0d2c89 bd8c0b6f 3e90a822 3d7879f3 bc847a98 3eb4d63f bd8f8df2 3bab1a58 3f0842bf be78878f be75b2d4 3d198399 3e572541 be4dec52 3e7ce6d2 bb4e0fff 3e8804ea 3d300646 be34ee7b 3e00894c be451d93 3ddd143d 3d356687 bc62a27c be7447af bda0bb7e 3d441031 be7d240d 3b3caab7 bdca5309 be19aae0 3d35e7ac be13f61c bc8ccc31 3c1285ab 3e520d3c bd17ec40 be6b2078 3e1fca95 3ddc5369 be2125b4 be718c02 3d2ed659 bd8d47b7 bc99caaa 3d99888a bbfeeeff 3d2e89eb 3c8380fe 3c81cd57 be27bd16 be744228 3e8a16e6 3dc71546 3e1466cc 3e0701d2 bd1771d2 3dc524ed be6a20c6 3e36fb92 3d2c51c4 bdaeef30 be126345 3da76248 3db254be bca50390 bd1b1477 bd2f5376 3c70a0fe be1fa1df 3d29e894 3e39769b 3e866729 bd7f72d3 3e656673 bd325cad 3da89a37 bdf090b0 3d8646a0 be4598c4 3e2a3ed3 3dfe6168 3e0544ac 3d916071 bdc127ca 3dff06bc bc70577e 3df92dc8 3d44d5da 3c8c3867 bdd8d18d 3d83006f bcf38d6f be7cca88 bc67276a bb22f64e 3e9a562b 3d858d8e 3d4f6ac4 bd963715 be023348 3e111287 be422548 3e5e1e19 3d242f29 3ea8d4db 3cbdf114 3d05fc3e be198128 3d1b46c1 3d08be23 bdde8ede 3d5d3bd6 3d833c72 3e6c7886 bd605f50 3eb66a5a bd426448 3e390cc9 be164821 3d46b64e 3e5243b5 bd3572d9 bee170f1 bcb2e396 3d872f4c bea9a8ed 3e073b42 bea008fb 3e103725 3e07991c 3dd7d31e 3d839d14 be403e06 be49697a 3d2a4128 3f39949c bd3bc8e2 bc88cb6a 3de94a7d 3c5ae6c3 be707b67 be59dc41 bd8cc6ce 3e04f91b 3e4441ad 3e50f2cb bb634ad9 3ea8d861 3ea4acbd bd9a5bc2 3d097b62 3e99f244 3d8e65d6 be8580c0 bdaee8aa 3da36fef bd9bd623 bce9290a bcce8f39 be760f67 3c11a009 3db40f1f bcc977c5 37f9a67d 3d671d90 3df39240 be270d0a 3e866285 beed56c9 bc8022e7 bcbab465 3dd31b5d 3e347baa 3e81e2e1 beb05251 bc3337f1 3d222dfe bcd4958f bbd61675 3e2e1c20 bb937e79 3d94d565 be7a967c 3e565f51 3c52a490 bba3b7f6 3f0153d8 3dd06af4 beb68b66 bd18d641 3e76b4f9 3e0e6d05 3e55fa36 be8d8b87 3d89ee42 3dd8b06c 3e37ae9c 3dc17ca9 bdcfb216 be80a852 3e1062d8 3e4b8f23 3e72c734 3a586e92 3e0e5adb 3d7bdb56 3d9da8c3 3d11e1e3 bdb03d3e 3e5fd8e8 3da0dd2c bdaa9b82 bd160f6b bdef3dc4 bd9aa470 3d429f7d bc58a259 3ca86d66 bd7c5428 bd9eb57f bdbebe92 3d93b8ce bdfd5db9 3ddeb3b6 3e66bbc8 be036641 3ee49cd2 3e3e1d38 3e131b9a bda22f7b be4a4870 3e86d1b9 3ef5f85c bd125698 3e05bb5f be0f5a2a be2ff1bf 3e4d4738 bec191ce bde22ecc be0c5e6e 3dfec54d 3e8e2d9b be809e35 bd3c37d0 bd0b1175 3e823afb bd1da227 be6b4411 3b0872ba 3e482aa4 bdd9618b bd98d084 be4fcbf2 3e8255f5 3dba90bf 3e2b7194 bd89751c be0d4a51 3de434ce 3e6e7a1b bafa39ae 3db1bb39 3c4a9ce7 3ce5e02f be61469e 3e1cdafa 3be4194f 3e1339ff 3ebf73be 3e47d572 3dd926bf bdcfab4a be8c7f3e 3dd310af bdb75493 3b71cb4f bd9a83cd 3cdfbe9d bdb24095 3e103433 3e348cb2 bd547b3d 3e1d0d3c bded3c66 3dcec654 be4158e1 3db71944 bd955e12 3dea17b4 3d1baaf6 bdcdfb2a bd82c04e bcfa35ef 3e32cccd 3cd10868 bdea7245 bc03fa25 bd97c28d 3d07be11 3d12ca66 bdbab8ac 3ece5ddb 3d9eda04 3e4a66ad be2595f6 3e0e3459 3e3174f0 3d099aff bc8ffb06 3e998f9b 3da2f23e bd9292d6 bde3a3d0 bd422b34 3d496d3a 3d981758 3d96d04c 3dc56e3e bdbf7b82 3bba76cf beb98d3d bd4237f8 3d3241cd be2793cd 3df3d164 bd8ca8ae 3dbda67f 3eb79ec6 3d47292a be00860b bdc8fd04 bb79f7d5 3e28026e 3dfbcdd0 bd6e4c94 3dfa496a be80295e be86586f 3d038cbb be72ef2c bdc9256f bdf3122c ba89754c bdbd1941 3e313ed6 3dac5544 3b9cc9ed 3e561c5d be33482f 3d58c30a be1b9f9a bd62f8ed be01eafc bcc14936 be5900c9 3df5412e bd2e33bb 3d938ae4 bdb9de4d 3f162db1 bd8204b7 bd7cf18a bcb45d9a 3e0c3798 bdeed123 3d8df193 bdc6b5a6 be26389c bebebec1 3db4cbc4 bcffefcc bdc55bd1 be0f6044 3e4f0a4c 3dac5be7 bd99fc4f be77011b bdd632b3 bc61d5e9 bd4cbf5e be09dee3 3e58f1d5 3d974544 3e022f12 3e21790a be144def 3e6c62e5 bdf958e3 be6f2d40 3e0af790 bc73b554 be0e6c20 3cbb6426 3dff5b2f 3d321d4a be3da827 bdcc0182 3e04a6fe bc6b9561 3be046a9 3dd7a7b0 bde39ad9 be296a97 be0b038b be82ec37 bd4e05e1 3d953d28 bded88bc 3e35c63a 3cca5f05 3e2d2d04 be353d07 3da4630f bda95dd4 be5903ef 3cada87d 3df68c41 3e630a90 bdddc67c bc9db621 3d66ea69 3d883831 bd87e13e bce837e5 3da474b5 3cc78962 3dfff0e6 bde370c2 bd9506b4 3e6f2b5a bdd4b30d 3e3aa2e8 3de4034d 3e4bd01e 3e25c1ad bd030c5a 3d93d608 be2dcf61 3d75ad5c bea69342 be30f715 bcdf762b bbcfb0b8 bea39bde 3e157077 bc8c2748 3dff6fe3 3e387a2d 3e6109d4 bd8bb47c 3e2243ee be30a021 bd7ea13f 3df2b9d4 3e827833 3da758f8 3e7afe62 bd02f60a 3df780a2 be722744 be9ebd4d 3d930c6a 3db45996 3de08f75 3db7261b bdf475aa bca800f4 be86faf4 bd0e116a bde7fa1a 3e278eea 3dd1ddf5 3db7793a bda3a9d3 bd11a881 3dfdf8f6 3da8b001 3d766553 be62351c 3c3ac2cd bdba589c 3e124d3c 3d3c8f03 3d9a1e9d 3e890c3a 3e195ef3 bee92545 3dbfca39 3b5de8f9 bdd51dad bde7559c 3e5521eb bebcee55 bdbf1b9d bda1564e bd3796bd 3e5657e0 3e6d8945 3e1df61d be2be26a 3ead6051 3df04c05 3d1e38ec 3e199504 bebe3153 bdf107af 3d752a56 3e9b9678 be30678a 3da66f6e 3cffcde8 be05760f 3d89c59f 3cef9541 3cc5825d 3eb38b77 be1b78aa 3c8ea4de bc78180e be9bce2e bdeaf52d bdd59c83 bdbda208 3ea04a2e 3e2a2319 be6d3500 be454cee 3e5f315f 3cc22c1c 3eb7548c 3e6a9e65 bc40fd00 3eacb0cb 3df49c72 bd9afd0c bbc50ec3 be44a0c9 3d8d3c21 3e7ee964 be44feb6 be074c47 3e261808 bdc5782a be21e5b5 bd45c9ca 3db061aa 3e0324b9 bd7f0ffa be396673 3eca22fa bdb930ff bea04079 3d9a48cf 3d45a8f4 bdc149e9 3d99f3d4 3e812dae bdbd3441 3e268598 3e877200 bcca2e00 be8850d2 3d391302 3e1023aa 3d885204 3e02b7a4 bb5846d0 3e25c3eb bdcf869f be209200 3edb12e5 bdbd3dcf bda9e006 3de23a52 3df7bbbc 3d73aa50 3e2d4c85 bb89f928 3d24be3f 3e744007 bdc69827 bdbf0e3a 3ecc5928 3ce4ee87 3ee2e901 3c952b3e bda2dd16 3f4c1062 be3bfb7e bcc0ed61 3e4936a5 bd2cfbd4 3e1e566e 3db6b206 3e3e7f11 bd15b737 be9141b9 be3dcd27 3d695993 3d6a7a84 3e3345a0 3e08ecb3 bdbc59c1 3d5d2670 3d27d112 bd41249f 3e9a1ddd bb0effb9 bd3e825f bc87bed3 3d54f7f9 3df7eb67 3d8ae337 bdd246aa bdd0d59e beeb55e9 bdc550f2 3d6ee206 be05280e 3dea80c2 3d818f71 3e003541 bb9c86a6 bd39963b bd092e0e 3e0f43d6 be1bc113 bcf12407 be056f9e bd00ce7f 3de910d2 3dad0ea0 3d8b3a23 bdb81e06 3e31bb35 3da2349d bd848db8 3dfb7ab3 3dfc688c 3e13848b 3d0dc3e7 3b164b24 3e205f2b bd1baaf4 3de46420 3e01fb77 3e1cbe51 3e166b95 bd4c912c 3c0e18ca 3d8572bf 3e287b94 3e163142 3e511f15 3dd56eab bd54df8c be169982 be562be6 be16bab5 bc732999 3e88062c bb76e3f2 3d8cc0c2 bca16ec8 3e5490b9 bb8a05b1 3dc3a366 bdc8d5bf be035f15 3dd26646 bdc6ccc7 3e31b05f 3c59aeb0 bda1b1fe 3e49f2bf 3e337414 bdf164db 3cfe1130 3d7bb5ce be875c56 3dca1bfc bdc4d08f bbf42939 be421878 3e0518ad 3ea5058f bcae2dc1 bc9916d7 bdfb792a 3a82756d bd4a54a9 3d952ca6 3cf81889 3e9f3d7b bea03cc4 be274130 be41d322 3c9c7710 bed49006 bead5154 be8b3325 3e0f59e2 bebbea30 be8cef04 3eaad173 bd67b096 be3140e7 bd281364 3dfd3e82 3d919603 3d969c05 be848fd4 beb19ba9 3e16a1a0 bdaf335b 3dacce8c be208987 bcfeb446 3eb51ca6 3df438b2 bde50288 3e42e31f beb933be be0c6741 3e440423 be4ffd9c beb676e2 bde4d0e1 3de19f06 3dd8b7d7 3e920441 bea45cbd be094fd5 3e8645a2 bdacf5b0 3da11037 3c7671db 3d8f5be8 be68440e 3de41b89 3ea4f63d 3c8177ba 3e1912d8 3d979a24 bd8f7291 beeb49b0 beab7f72 3d8a7dec 3e117b85 3e791245 3e8591d8 3d9c67a9 3d40af59 3de23869 3e2d9c6d 3e93be16 bc711cd3 3ee6f6d1 3e5bbe7b 3c5f5e30 bd792b81 bd8b9046 3dd3356c 3e024200 bd2850be 3e87ccdc 3daad0d4 bc799b1c 3ce866f4 bbc46311 3d00dc86 3e015e2e bd9d4c50 bcaeeff7 3e6539b7 bc1047bc 3e1cd7d1 3e096f02 bd784af2 3eff83ff 3e2a8e2a 3e647702 bc1f9890 3e24a746 bdc54aec bddac1a3 bdae0d67 be3ed9ef 3ea2b0e1 3be0f591 be39b22d 3dfcd723 3d8fcf93 3d457bdd 3cf21937 3e0b9fb6 be524e99 be0d9040 3d350c98 bda6d966 3cd25cba 3e870dc0 3ea39169 3d072bf1 bd3b9a11 bdbc3765 3bfe7cd0 3dbbcd35 3e290459 3e6b943c 3d87ec89 3d3d49fb 3d896406 3d51a635 3e32f2cf bb6be344 3e8c7a1c bd53531d 3dcc0373 3df9d891 bd0d2338 be81dc1f be09b936 be8034d4 bdeb9205 bdb59e93 be20c2b5 bd330bad 3c9d25a1 be8cbe39 3e6e8c36 3e2426d3 3ddaf9f7 bdb1c883 be16fbb1 3e326a0a bdd8eddf be1e2c5a be56521c 3e43495e 3ed8e4df be41472a be36714a bee1668e bceb6190 3dc2f8a0 be622995 3de2329f 3ea57ea3 bd92c391 bd88fd9a bba8886f bdac97a2 beb97040 3e2235cd bf078d04 be47dfe7 baad70c8 bf4c8b35 3c5f3bc8 3d10fa57 bdfc13c5 3d38ef8a bdaeb7a1 bd47ecf5 bccd068a 3d94e234 bdcae95c 3d4563d0 bdab7173 befa9bce 3f3a92d7 bd9b5ebd bdd67d8e be01ce9e 3d87b982 bdda10df 3c769a92 3dcb7de3 bda76867 bcdc4b9e 3ecb9e26 bdff13b3 3cf27d2d 3d8597bb bd617fb2 3e316443 bd47a34d 3d3ff748 3e019892 3e055a0a bdad8516 3e3d0484 bea0fdee 3da42c05 be1312c7 3de1897e be2647a8 bd975dc4 bd408bfc be1d27ff 3e4354ba 3d91a00a be023afc 3c9b2d2f be584161 3d97a4e1 be4345a0 3d062327 be74790f 3d396d57 3de38674 be861652 bdd51176 be538522 bb164436 3e2dc748 be1c5d5d bca74e74 3e1ddea7 bd4f1e2c 3dd25e43 3d8f2935 3d9370a8 bde73eab 3e270a05 3e1bfa04 bae8c86d 3d074aff bb577981 be74bcf3 bda1080f bdf76f33 3d8f17e8 bc1a116e 3e98c424 be8eedae 3cc67538 3d934278 3e280440 3dcc6c69 bef0782b 3e30bdeb 3e46e4be 3db7f6ae beb14dc5 be1cbceb be0e1657 3d6a429a 3e881724 3d578071 bdb4fdd4 be02ed3c bd7c1d97 bdc57b16 3b839dbc 3ddf524e bdbd1a71 bc8fda0f bda7688f 3dfb3d48 bd5a89ff 3e2f3844 be9a80c1 be63dbed 3d6d7812 3cb3010b 3d356bf6 be506e79 bcfd2e92 bd4e9a23 be900aef 3da9a833 be1dca33 bdec5b7e 3e6bd883 bc76a460 3e1b268f 3d57e821 be2c35f1 bc890871 be017ff1 3e525128 be193d06 bd3daeb4 3da7dad8 3dc6a0ec bd64367d be6129a1 bcd67c22 3c85e7f8 3dab52f6 3dcc95ba 3d378316 3d10f8a5 bd2c025c 3c653a8b 3e5db243 bd5b6786 3e2cde8a bd4475c8 3d51437b 3cc5bc18 3d27fa01 be314922 bdeb04a7 3b698a97 3e53d742 bdfc8ed0 be3b228a 3e6edefa 3ced054a b93b483f 3d55a335 3cdfcd0a 3cbbcbe4 3e0910cf 3e3294cb 3e80efa0 3d4b3b0c be0ed4ff be7c4dba 3edd442f 3c8d32f4 bd408bb2 bd43e87e bda8421e 3d7ca001 3e25f7e1 3dfa2d1a 3e676dfc bb79a39a 3d59fdfe be38b9ec 3e264657 3efeaf61 3df43e7d 3e58407c 3dedc38c bd013023 3e91360c bcdbcf23 3d05db50 3ebb6093 3e00e297 bd202add 3e2a271a bccbba8e 3e251050 bdab97c2 3e268b12 be2ddfaf 3e36668a 3e2b895f bcdf0cc8 bcc2f9f3 3e37aa07 3c7c2451 bdf3a27e 3a04db4f 3d7ec75a bd561f9d 3d935e40 bf2b81bc 3cdd4ca5 3d0a476a 3e2d0977 bd2c6331 3e5e7f49 3f086ab1 3db1a5fb bd1ed446 3e01d430 be86cf32 3cf759df bd98f3b0 bc49d9a3 be6fba77 3d451027 bdfbd19b 3c316cca 3e0853ce 3e3c10e6 3cd521c2 bc19c5d2 bd29a0fe 3e3dc1c7 bd3e8fc7 bb97dbcc 3d9fc876 be338b16 be71f7d9 3d3b9197 3d4d4f14 bd8ffee3 be2039f9 3caed254 be3f8f77 3d32c1b7 3e7107e6 be76a3e9 be5120b8 3cea4a92 3dea364e bebf3f78 3d35ea6f 3dbc9ebf bdf9e25b 3e9bfb0a bdd39ba1 3d3a9e48 bdadfe24 3e05db47 be545358 3da2c52c be06c0bc 3d7fa603 3b5ee9f3 bcfc31af bdbbef96 bcb09fa1 3e25bf0e bdb9b004 3e2d867d bdd2218c be0dab90 3d836680 3e5517f8 3d3bdd95 3dd056cc bdf88107 3d5dbe0a 3e16057c 3dbf4c07 3e0e41c0 3d11d75b bbb098a6 bd8f9089 3d84f88e 3c9d5668 3d4f29e1 3daad407 bc71ad79 bd35818a be9b51d0 be48d4f1 be26e56b bcf0b11d be088c64 3dfb1f37 bd6cacd4 bca79ba9 3ebeb30a bd29b0c9 bd05d078 bd98a136 be1cb303 bde591e3 3f07da11 3ddc08fc be3964e3 3daf7935 3e4aa68d bed67ba0 bd773057 bca6e4ab 3da90eef be0dc14e 3e079c33 3dc2056b 3cadd94a 3e8c745c bc9d8950 3c282664 3d2f4c58 3d12f28c bcccce99 3c9cda93 be24f7b8 3da1548a 3ddda4cc bc078319 3d937dc6 bdd00ce5 bdb60747 be1da926 3de2f0d5 bcfdc166 3ef3cca5 bdf9368f 3da84777 bf43c266 bd41accb bdba8570 bddd2b9e bde71076 bd50d752 3da050a9 be2a9349 bda807a6 3d31fe85 bda06aba 3e3a1eb6 bdcf1be9
subgraph.layer_seq.glp_0.linear2.bias 64  bce69a84 3bf212ee bd8323d7 bd1f1a82 3d56210c 3c4e1e0b 3e071764 bd73b590 3d3a389e 3dbc0499 39ad3437 3ca3a901 3c8b629e 3d2b1fe9 bc7d9d53 bd03f1ec 3bbb6c96 3d40e8f2 3cab0884 bd6b0667 bccb2392 bc6e7867 bcd1cc36 3c9a64c5 bdaa833c 3d5c42de bcbef327 3cd66e85 bbbd9f54 3d8dfcc7 bb91d05b bd0b8fde 3d13e60c 3d5b0389 3c6cae98 bc90d30c 3d8b36db bd890308 3d0911c1 3c877e1b bd72e5d9 3e0bc1a5 3d0f40c0 3cc8aa49 bc8bb553 bafc4a96 3cf321c8 3d25c20c bc225c5d 3d39e969 bb517989 bb8fde5e bcf2536e 3e068226 bd0a85df bc495846 3c1839a4 3daabe21 bd21feeb 3c9b3aa4 3d5267d5 3d3a929b bccac3ef bcd7e696
subgraph.layer_seq.glp_0.norm1.weight 64  3f0b945d 3f5e2484 3f354f04 3f378f7d 3f74f3d4 3f5deb88 3f3e422d 3f4711c5 3f38f6da 3f4ccefc 3f3dd663 3f19ce2e 3f5bfa6b 3f0751c3 3f283d95 3f91f996 3f17323a 3f22f416 3f977ae8 3f653a6c 3f747e77 3f2dfebd 3f2b6e61 3f9454b6 3f5e13ff 3f2f9dd7 3f532a50 3f1ea5c2 3f66370c 3f1eb8d9 3f279d09 3f8417a4 3f69b868 3f48f779 3f318fdf 3f43c7b9 3f2a09ec 3f0ef0bf 3f0fe038 3f07ef0f 3f314694 3f28c23c 3f5cfe0f 3eb01f70 3f0acff4 3f54ca67 3f5f6e7c 3ee9ff07 3f3025e7 3f239790 3f280721 3fdc923f 3f1a5753 3f190ecf 3f29e55d 3f1e4801 3f541e93 3f7da37c 3f218446 3f33848c 3f7542a5 3f5ca897 3f405200 3f0c4bce
subgraph.layer_seq.glp_0.norm1.bias 64  be3e18a8 bdcf1415 be3c3c68 bdf6c595 be13e680 be1c5721 be1e9a91 be68da89 bde45e24 be0263f2 bd9b855c be54bdae bd5b83b5 be2bc79b bdce4aad 3d923633 be52c3cf be852f7e bca8d983 be19eee1 be8631d6 bdb228f0 bdb062e6 bd065d85 be01b1c0 be02aa4b bd855247 be04ef0e bdd29401 be94e4f4 bdda241b baf39241 bd6132b9 be3052f4 bdb104d5 bdae2e91 be44ea2d bdf22559 bdfb46c5 bdb88406 bd9db830 be4596f5 bdf511d4 beac0c45 bdb1cd17 bd9bcc05 bd50dc6d beb95fc9 be024dc6 be0b05fe be1991af bbf46ffb be2a5fc7 be5a6dd1 bda084b1 bdf3fc76 bdecc7de bd10466a be57ed72 bda19445 bdb8077b bdf973cb bd87297f be14cc9d
subgraph.layer_seq.glp_0.norm2.weight 64  3f36bf30 3f208591 3f6af78b 3f4292c1 3f369b2f 3f2902cd 3f583dec 3f93d6ab 3f2f0dfe 3f0d0798 3f2c744b 3f3d8959 3f68ed17 3f4c33e4 3f446e93 3f5df2f4 3f2972a6 3f210820 3f6228e3 3f4d5649 3f43b9a6 3f538713 3f5956fe 3f3c75e4 3f47f77f 3f177a43 3f24d41a 3f11528d 3f665898 3f2730e1 3f2721a4 3f39b0ff 3f43f31b 3f626876 3f5feeda 3f1d0765 3f4f9bc3 3f517fb4 3f174e54 3f473895 3f748bae 3e8c5213 3f1e8c45 3f61a716 3f4ae434 3f5219dc 3f1d7ffe 3f565ffa 3f366e04 3f31f686 3f2a5ac9 3f35b9e0 3f420c7e 3f35c23d 3f42584b 3f1a82ba 3f817af2 3f072a1a 3f6593b2 3f38cffc 3f4082f8 3f3d632d 3f48e240 3f579a95
subgraph.layer_seq.glp_0.norm2.bias 64  be100a32 be5076be be3c3866 be016701 bc059efd be0eaed7 bba0980c be4b4108 bd8c7a65 be8b1346 bdf3c6d3 be09e2f5 bd2e787d bc8804ea bd3abad3 be56f45b bda3c1c0 bdfb7f16 bc936340 bdf22a9b be04379e be2580e1 be4809d6 be03085e be3776ef bdb56de8 be2b1e0c bd552764 bd23e825 bdef1990 bde50524 bdb651a7 bcbfce34 bbd86535 be1db394 be166984 3d591b2b be2d3154 be284b43 bdb525b8 bdb02f4e 3b0bb050 bdd0729f bd58f1b7 bdfcdf33 bdfbfc42 be25122a bd217b0c be38bd91 be1de3c8 bd8878bf bdef51b4 be0bf3e2 be4655c6 be10073b be3198a6 be6c4a96 bebc35bf bd7542b1 bd47f698 bd3201f7 bd845746 be064d8a bce437c0
subgraph.layer_seq.glp_0.shortcut.0.weight 384  bee8ce36 3e258dfa 3ee1a406 3f0689cb 3e162ef8 bd6344ad 3e060f29 bd004498 3e9437d1 3d854d89 3d980ef1 be83b311 3d8e43e6 3d2cd2f0 3c190655 3e9b8ef3 3e876891 3e01bab2 be8d5ae1 be792dd8 bec9fde7 be43afb6 3d2a4419 3df76a6c 3f1aecf7 bda086c3 3f82adcd bf52fbbb 3e1b7de9 be7ca3d9 bef35710 3e6fb1af bedd21a1 3ef59ace bdcd8f0b be360932 3d3491a3 3e02e665 3e10b49f 3f239471 be397a06 bf125201 3e56d425 3d918483 bf3f531f 3f156970 3e1de577 3ef3a808 bd7bbb47 3c9de2c4 3e834040 bdae5b03 3e60d92d beab823f 3e0d8f5a 3e560ba2 bf1d6784 bf0a933d be8e02e0 3c7ebdaa 3e17cd90 3e4ad36b bf977c9f be960ce0 3ca1a3ea be5168dd bef293a2 3e850e67 3eeac817 3e1e4c63 bda87f54 3e65f008 bd852eb9 3df16caf 3f0969e8 3f6879af becbe676 beb324e8 be6e980a be908b70 bd35b211 be7e610f 3d92a5e3 bdb20017 be8943a7 be63fc04 be353bf0 3f13c851 3e06c9ae 3f0136bb 3e0d792c 3e453b0d bf3a4a95 be0436c5 3d35f2c6 3e8dae39 be1434f6 3c8197d8 bbbd8e12 3e67d5d6 bdec9a03 bd26099d be845e30 bda252ef bcb863ce bda15181 3e812d46 bdca2ead 3c16addf be9e2ca3 bc3c85d0 3c5d971c bde2b3f0 be41f83c 3ed7e11d 3cf11e2b 3f0089d2 3eb0c606 be4eb445 3e7af469 be31ddde be0678ec bd4402d2 3e8b117b 3d8b523d 3ed7955a 3e1092ac bd967e8b bea8bc39 3dad9f59 be3734dc 3e34e043 be676a3a be2a87e5 bdad95f6 bc1c0ad9 3caa24d1 bd770389 bf1bf0d1 be00adfc 3ee180e0 3eaf6d81 3e6c0371 bed24b7e be998cc9 be4be479 bbe2d2fd 3d285269 be070751 3c2cc4e0 3ee0a949 3c72deba be4c4c3d be332773 3e886678 3e50b3ca be502f34 bd4e52ca bf1ce40b 3e9bef0d 3dfd920d bdfe15d5 3e48f37e 3e68ebc2 bf12b3b2 bf2beae9 3e463cb4 3d49d8c2 beb0cc34 3d2216dd bf40bd19 3e816bec 3e22d6fd 3e8daede 3ee0d877 3e159a7c bfe496ce bdc35824 bcdde6f2 bcb8ce4a 3ca8ae86 bdaf4c08 3e9f7374 3eccad3d b90e4190 3ed65895 3df4dea7 bdfe75b3 3f57c144 bf0dd9b0 3e3f5210 3eb343d6 be2603a7 bda48878 3edf4cf0 be110a4b bdeef1e8 3e25825d be3123bb bddc0118 3f2a4769 be819e6a be54b39c be81db48 bd16446f bd50feaa bf05cb24 3f6374e7 3b0893fc be7a1837 bdf53b1a 3c2702b8 3e88f05b 3ec1bebb bc9f798b 3e6a4c6e 3cd20544 3d53c32e be23a8d6 bf70d372 3d9d123c bf6dec23 3df4975e 3e921599 be38dd8c 3f3f57d8 be0ecbc1 3ea665a3 3e7580c4 bdb5674a bef629e3 be9b6758 3dc9c15c 3ec73c49 bf10c4e3 be2b079b befdcc56 3e52ed66 be8a58a7 bdcbc75e 3dfea763 be7a8362 be6ec800 3ea63081 3e39eb55 3d9be642 3f1aca88 bd59c389 3f5a926d be70e363 bdae1b3f 3e965279 bed42e74 3d5b9354 bf437cae 3d483a8d 3e4aae45 be70e5e8 bd4b8292 bdebe8e8 3f78a36b beee34d2 3db6b062 3ba40804 3e3f54a4 3e66118d bee4d554 3f49dbf8 3e915db5 be9c467c 3e1ecd75 3e753e85 bf7536ef bed2262f 3e505cab 3e10cef9 bd9d800a 3e30073a bcb15c3d bd9f97e2 be8ef91d 3d04c41c be2d861c 3e7441b5 3d0df830 bead9c7e 3e05ca50 bd745f5e be9ad0fa be4bb3ca bfeb6ffd be264b65 bde661f3 be0f0681 3daa31e1 bd943d54 bd1c2500 be1dc204 be5c394b 3c712ebc bec9fc53 ba6d5439 3fb83d69 3f5700d4 bdd984e3 3e8217cf 3d80ebda 3cbc11a0 3fb1c88b bd6ac189 bdb4fa08 3e9ab191 3e18295a 3e193333 3faa0eeb 3f5bbccb bcf4538a 3be7c791 be8dd1c8 3e8164ee 3fcb3570 bf09aed1 bebd08f3 be555401 3da2ffd6 be3d67be 3e80b00e be987d8a 3e8de1d5 3e18f582 be904e6d bd436480 3f1aed44 3e230ee6 3e3855f8 bdb66d8b bde3c47b 3e592f69 3e99bb47 3e8a20fe be086992 3e04da24 bd0548f6 bda46363 3f4db259 3d4a2413 bd66864f bda22735 3f2c138f bdff28bf 3ed3888f 3e0b7e99 3d09bf18 bd853a1a bda307f8 3e8289cb bf695eca 3d25cbfa bdeef186 3da0518b 3db70e2f 3d859081 3f10ab32 3e5f1cce be8a45af 3da395df 3e9910db bdddb6ec 3d16ab36 bf80a04f 3de7e6d2 be4c4e7e bdc946de 3d9261f8 bf0fe056 3d50b362 be2befa2 3e5e8d66 bccd1e8f 3e88b3dc 3e794f41 bec1e8e3 3e956a55 bbefe84f
subgraph.layer_seq.glp_0.shortcut.0.bias 64  bc6e0292 3e733d30 3e9500cc bd66737f 3d447cf9 3e04c786 bf44fd7a bdf470f2 bf147b09 beee456b 3eb310bc 3dcb7a56 be822d90 bec4aee2 be67d714 3e6dde40 3f29eae4 beb9ad52 bed3028d be62b9a6 bcdac09e 3ea22726 3ed85b6d be49f2b4 be10d0e5 be23c4eb 3eba0386 3df9632c 3da30f02 3c22491d 3edbb0de bd222898 bd00bc78 3e8b0f84 3efe8b9a 3ee4a659 3ebb28de 3d2637a1 bd217fc6 3ec6cdeb be9663e4 bf3232db bda2f922 3d751721 bf063d38 be5a8d15 bef86cd5 bee456c2 bd94334f 3d35c09e bd08a340 3e82e446 3d0a05c2 bf1402f3 3e8e25a6 bee0bf09 3e145a76 3d656950 3ec62033 3f1d5321 3ecd861a 3d7079ea 3edab2ef bddaaaf4
subgraph.layer_seq.glp_0.shortcut.1.weight 64  3f2f9b8c 3f281d21 3f2d968c 3f36c685 3f6d366f 3f53fe53 3f51cbd2 3f58d7a1 3f4e51f6 3f46cbf2 3f2d8f58 3f48afa2 3f937133 3f48e2e3 3f430fe2 3f28b9fc 3f68df8d 3f2db3da 3f4cbd2e 3f5a2960 3f2c537d 3f37b815 3f2fafcf 3f3e15f5 3f30cc00 3f33f4d8 3f2933e2 3f3efed2 3f2ad3d2 3f52607e 3f356572 3f438540 3f10ea9b 3f607ebb 3f51781f 3f2efbb3 3f8b245a 3f336449 3ee97b0a 3f5a0866 3f3701f8 3f85fbb5 3f332917 3f4314bf 3f4685a7 3f24bef9 3f289bea 3f3a4dd9 3f4b738c 3f370279 3f6b2b6d 3f270f38 3f385b6c 3f726840 3f326e80 3f380455 3f1c55ff 3f27baaa 3f43f8fc 3f40ddf6 3f35b935 3f9e7bba 3f3e044f 3f3e47aa
subgraph.layer_seq.glp_0.shortcut.1.bias 64  be100a32 be5076be be3c3866 be016701 bc059efd be0eaed7 bba0980c be4b4108 bd8c7a65 be8b1346 bdf3c6d3 be09e2f5 bd2e787d bc8804ea bd3abad3 be56f45b bda3c1c0 bdfb7f16 bc936340 bdf22a9b be04379e be2580e1 be4809d6 be03085e be3776ef bdb56de8 be2b1e0c bd552764 bd23e825 bdef1990 bde50524 bdb651a7 bcbfce34 bbd86535 be1db394 be166984 3d591b2b be2d3154 be284b43 bdb525b8 bdb02f4e 3b0bb050 bdd0729f bd58f1b7 bdfcdf33 bdfbfc42 be25122a bd217b0c be38bd91 be1de3c8 bd8878bf bdef51b4 be0bf3e2 be4655c6 be10073b be3198a6 be6c4a96 bebc35bf bd7542b1 bd47f698 bd3201f7 bd845746 be064d8a bce437c0
subgraph.layer_seq.glp_1.linear1.weight 8192  3db06aed 3e06222b bdca630d 3d994880 3cd73889 3e5daf2d 3e535e8c 3e979993 3e335ee0 3d53107a 3d10247b 3dad4f25 3e77bc13 3e34c6f4 3cab7c96 bbe762f4 bcc36ed7 3debb810 3e68a6f8 3e766fa2 3de8d511 be91a778 baba3b0b 3e1c9513 3d932351 3daaf249 bdbd744d bc6f0330 3e5ae23d 3e20e1da bdae7d72 3d842785 3e25d8b3 bed742bb 3e12756f 3e08a006 3d25aac5 3d193c7b 3d5fef30 be0c3e82 3ee3ab79 3e55eb5a 3e36afec 3d83a014 3c48731b 3d941bb9 3df85d7f 3e2bad5e bd09989c 3e5867b0 be44bbd7 3d7a3446 bd433489 bdf0c5b9 3e114970 3dff304b 3d917fd5 be1b5a8c 3d196f6f bcf77e3f be7def71 3e9f9895 bd010f6c 3e9c0059 3c2e0f53 be3ad19d 3ceafb4b bda48c57 3e425a98 3d9586a4 bf0ecb99 3e3759d0 be2bdb02 3ddede67 be09f185 3b937a0b 3e926580 3e0a6b37 be07cf7b 3d17cfd1 3e2da6b5 bcab596e 3ece53a8 bd9ddec3 3ddf941e 3d9d16fd 3d683a60 bce91093 bec03e8f beb2076d 3e155043 be884e41 3e0243f9 bea26aeb bda072bb 3dc66ccb 3e79575e 3ce8934b bee2d69e be847489 3e2b6271 3e251747 bd12cb88 3dc4d4b8 3f124487 3e3b1063 bdfa2b38 3d0c8c4a be92e1dc bb6d40af 3e076079 bebfed39 3e896e1e 3daa30c5 bf1ed6e3 bc82a995 beda8f73 3e04259b 3d3438a9 bcd41c74 3e6afc54 bea849f3 be8ca6fe 3def74a9 be283f0b 3e993778 be75ff5e bc9f45e2 bdbd6258 be1070ad bae44c3c bdfc4e36 bc4e31a3 bdff2c23 3db5f223 bf111513 3e21b859 3c533b28 3d324ff5 3e450f46 bea31dcf bc51e728 be8777dc be04025d 3d754c12 bc062071 3e81355d be0246eb bdc4494b 3e2c3c09 3eb5c472 3d9ff08c 3deb3757 3dc909a5 ba82c85d 3d500012 be00eded bde8da7e 3dbed123 bd2ca5ee bd52a9dc 3d1821a8 bd19776a 3c88f2ad 3eedfa8a 3def34d3 bd2e63b6 3dd66d76 be82abab bea7a5b3 bdad9c84 3dc054a7 3e1fd149 3e0454aa be370fb7 3c96bd3a bdff81e2 3ddad7d2 bcadc57a be5dc172 3e3aa34c 3da219c4 3d6932b2 3dd2ed7a 3ec71d2b 3c769485 be85d95f bd9bb151 3cc4ee09 3dbfdb8c 3e17cda7 be4b9106 3c39ea6e 3dbcaac8 bdf15ef9 3e0401e4 bbe980ea bd44ec79 3e2bf074 3e987d27 3ce90ac0 be7ff041 3dcec67e be992679 3e5a8a23 3e3ccb1e bd384f1d 3e5bb0cc 3e3e924d 3bac0a2c 3e3cc093 bd9b601c bdbc799b be5cdadc 3d96c032 3e1a54c2 3b9f91bd bde94637 be1ccd7b bc9d56cd bd865064 bdb74cb5 be09a15b bde7d4ee 3dd0a2be 3e9475db 3e60bab4 becc1198 3de8fce6 3ede5e56 3e780177 be369a45 be2ea6ae bdf475f7 3dda0343 3d8d3bc6 3e2057de bd904c1c 3e97f516 bda927b0 be34698d be8573bb 3c9c293c 3dbec480 3c9d9ac6 be242788 3e2208a4 3b0e9276 3f4aff83 3cf15306 bea6c24c be4ae3a5 3dc161f1 3ebac747 3a459a1d be1aa0b4 3e58984a bcf705d7 3e5c93c3 bcfc9c16 bdf7ab5b 3e8af201 3e065e56 bcf7dd9b 3d348a2b bc12948e bab64051 3ce8cbb2 3defbde4 bd7c24ec 3df894c1 3da006fe be5a078f bc0d5628 3e88654e 3d00e9f7 3ce0e373 3e2ddfc8 bda06a33 bca9a36b 3d173156 bd266d95 3d3af88f bd21e607 3df393ca 3dbb80ce 3ca22a8d bd657df1 be1bdfbe be528050 3e2358c3 be2152ff be383028 3d2b312e 3da08844 be42f886 3ecf1c85 bd93bb47 bdea7447 be2c7315 3d14e056 3dc4c2ef 3e665e45 3daafd78 be02773d 3e27ca90 3ce8ffa6 3dc9d1a3 3d8f85ae bef54251 bcee45c4 3e56e3d6 3e54196e be85e559 3de4ab3b bda1c6ad be649bcb 3d8b1519 bd9a6dd8 bd8c3f9f bd8bace5 3df996f5 3e7455ed 3ddc495f be4416ee 3e9fe762 bbb7935f be304def 3cb09a11 be003a03 3d03e49e 3de58b03 3cc9ec54 3dd72155 be02dbfc 3be5f276 be107c33 bdcf4a8d 3e1465f3 bdb3f45d bdfa1181 3b830924 bd49836c 3d319566 be5af1e8 bdc40d34 3dcae7ca 3dae63b1 3e3e606b 3c8fc3f8 3d9814ee 3b4295ea 3c8c3b40 bdfb9e66 3e38a7ae 3d099961 bd42108a be4061ee bdba8a61 3e65e122 bc2cb48a 3d7e4a91 3d231253 3e253c34 3ddf1b74 3d79a920 3c9d3bf6 3c5d3d26 3df36d75 3d2910e8 3c028af8 be2b5488 bcede650 beab39cc 3e2d092c 3e9b0af8 bc6354a8 bc3efdca 3d478e93 bc88c382 3ae24861 3c452bdf be0e94ff 3d514db6 3dd57bb3 bd95506c 3dec7e39 3d49cc8b 3d43a72c 3e703cc8 bd44d65e bdc54328 3e67f19d 3ddb27d9 bd845159 bd9d8e80 3e75559c 3da69708 bd93ac3d 3e5e802c bd29f785 3ccd6b34 3d457011 bd44296f 3db15959 3e36de47 3c92d1a4 be028876 3e11cb2b 3e22396b 3d19fe7c 3dfdab5a 3d392b97 bcf00482 3e3a3d5a bd29622d 3d1d3cdd 3d934f89 3ca02b82 bdf4d71c be307b11 3e24a72c bc3dbd5c bf0566ab 3d063169 3e37e939 3e29caf8 bdc0c393 bd56ed38 bd28655f bdb5acb8 3cbcc6f7 3e3eb58f bb0a9b1e be99ed16 3af985dd 3d817fe5 3ddcada5 bd4ba0a2 3d80c40b 3d62b276 bdbcca01 3e851752 3d4f2bf4 3df150a2 bdece37c 3dcb0a7d bb0dfd65 3d22e902 bdbc0a83 bdc76e8f 3dc244a7 bd642d78 bd96ca41 3e70f2df 3ca48784 bdc94054 bd390f82 3df7c93c bdfd0424 3e0265ea 3e10530e 3cf10c72 3e1ced3f 3c60ebe8 3b078bdc bdea8518 3e3f277a bdaf1dad be9bef31 bdcaadb1 3c2910fb 3b49b2d9 3e31f8b4 3de40948 3de62733 3bb93d2b 3e12df0b 3bbd890c bc453e67 3e07952b 3c177eaa bcac8dd4 3c78f1d2 bdd61ae3 3d925385 3e27039d be28a6cd be0181f0 3d28c09f 3d66512b bcbf19df 3ce664ad be018a63 3cf89546 3c057281 3cf8e911 3e3bdb89 bd68221e bd42727e bd086ea5 3e82d75f 3e19e887 3e036e56 3db32535 bd8978f7 3d54872f 3e57f44d 3da04d0b 3c0dfb18 3ddca432 be40659e 3e0d12bb 3cce5019 3e7d9251 3d0150aa 3e918852 3caf7a78 bcab6a22 3d2d6210 3e5002b0 3e08ef6e 3d90e704 3deb7c46 3e260983 3d917f31 be14aa8e 3e4cca46 bde35303 3ce1ca83 3d609a99 be334945 be062f88 bd8334a0 3d3b2e73 3e17322e 3e3de346 3e197a61 3e51db9f 3e5769ed bd345727 3d630749 be0a2673 3e3fb747 3dad3658 3d9b4b9e be18b769 3e36ef93 3e5416c6 3d16bbeb 3d8ec651 3d66ea97 befb6744 bd7a2bcc 3e58dedf 3ec66ce8 3ce98b8d 3e891d31 bc7b04ea bd9f547f 3e12acd1 3dad66d2 3d5851aa 3d864ff5 3d269142 3e4d0ab1 3e5cc71d 3b021d40 3dd5c134 3e0194d5 be97f0e0 bdf3f758 bdd91412 3e424264 bdb0c059 3d448960 3d887cf4 bd97ad48 be0c30aa bd93556b bc06e887 be163844 3ea4f6fd 3dec9872 be821aa8 3d870b09 3d66deea 3d9c2e91 ba477606 bc1ea105 3e2418da bd7893d2 bda10394 3d48dc7d 3e09fd6f bd1be281 3e0e6693 bdebbafa bd93c1a1 3e706137 3df14e34 3dc3d23c bd48e87a bd06dee5 bc3bd002 3d1ae727 be64caaa be558197 3cddc489 3e0068f3 bbb589a6 bceebe84 beb3889e bde0d990 3e110138 3e1a79e9 bdebf790 bc70be15 bc4c0a31 3d6b37e2 3e89330d 3d9ea8dd 3e23f8ca be51a9f3 3d29d5e9 3d052456 be219338 bd273f8e 3e5867e6 3e1bf4f4 bdfa8452 bdf2fd01 3d816cd5 3da861d4 be4addfc 3dc2e19d bd1fc5fc bdbad5a5 be824210 be6fb79e be9c3aa9 bdcc1645 bed2d4aa bdf25a7b be55485d 3e157603 399af7e8 bc408faf bd24f487 3d0b24e6 3dba702b bcf2b13e 3ea894f9 be198614 bd0d85f2 bd027f53 3e86d50e 3e088e52 bd6d25e1 3e16b2ee 3e1c52f6 bdcf8d27 bead11f2 39ad6c87 be395d8c bea05b1c bdcb11f4 3cab3c01 be4dfb11 3e1b6e43 3d3370b4 bdc7ff90 3de95892 3dbc5eca bde905c8 3d4c7a72 bcb2668e bdbdf39a bdecbd4d bdc78957 3c581760 bcd09e3c bcd58691 be590bc4 bdd36f6e 3e404e54 bd8bb2b0 be95fbc4 be65554e 3d3d1efa 3e805702 3e10bd18 3d554449 3e6186d4 be131cf2 b9a745af bceb5ed3 3e6f8425 be8595c7 3e49f765 3d119a89 bd5b907d be1de314 3dcb7048 be344f9c be4a7a79 3ebab90c bdfca898 bbae15e4 bd824e7e be618d20 3dea256c bd842de5 3e55d3c8 bd6bf44d be267a35 3b1f0084 bd0b4983 3e500f9a 3e3b0748 3d47b4ce bdde064b bd87659d 3c95864d 3e3905c1 3e9196e2 3e5d6207 be0e0d1e 3d108dc8 be4d7b2a 3bb1c732 bba2119a be513ddf be0df129 3e66d9ac bd0559c6 3e052077 be39ca35 3e8ac246 bd2a2690 3c95ccbf bd87c3bd be14058e bd4af6c6 3eef021e 3e50a5e2 be67fad7 bded4da8 3cedc3a4 3d177a62 bb68591e bee13cdf 3e25e967 3e9e44ef 3e2c7317 3dce719b 3d9a413b 3be1a018 be56977e bd1f5b83 3da79243 bc8ec8a4 3f0f6fcc 3c37449a 3d62e894 beb19511 3ec19642 3e155742 bc32587d be5fc040 bd67b2bc 3da68807 3edff851 3e7700d7 bb14c7bc bd4a3eea 3d7414d3 3e194764 3c71a25f 3e3aeeeb 3e1cb4bd bc8792f8 be2a547f 3c5dd7ac bdd5cf2e 3e35a64f bdfb7f6c bc3ba965 3d5c03c6 3e952117 3e246e2b 3e7df1a3 3daa20a1 3e161b34 3d0e6b57 bd945513 3d9bbc76 3e01fe50 b89d9834 bd0a3a25 bd75124a bcf4223a 3e2976ec 3e01b097 3e5090a1 3dc3fdb1 3e08baf7 be84ddc7 3b8eceec 3ebad4bd bde4aa8d 3dcb71e9 bcce6891 3c3abece bdc6b1c2 3e8e9e19 3e55607c be0d63f3 bc8d0a03 bcf947e3 3e0b89e6 be24ae05 3cb96237 3de38f80 bd5b484c 3c9ac974 3eb6af62 bb383e56 bd66a001 3e049833 3dba2d98 3cd63d99 3e1c62c4 3da30e43 bdb5c313 bd9fccf5 3d727e38 bef06d35 3db559aa be91657f 3d93b64d bd0f9394 bca717fd 3d34dd26 bdb82ffb bd4cf7f1 3e02f087 bdea5618 bd51e88c 3e1f57e4 bdd7529f 3ddc6fd7 3dae8325 be2e844e 39a2563e bddc2d57 bd99335c 3df20420 3d00aff4 3d2e8641 be98ccae bdd58e7b bc78c1f5 3d59153c 3deb0fd2 3e9ae6bc bd9872a2 bdd2bef8 bd976828 be0afd7a 3d964f77 bede5d8c be13698f 3e877dad 3d598f81 be0309d9 bca69ebe 3d04e14f 3c2636e0 3eb2db24 bccd1e7b 3dfcf47d be83904d bbc96533 3c0c69e3 3d6bd418 3dcedbb7 3dabae10 3e30e8f1 3e069a4a be3657b6 be2ca8fd 3e6f6e93 bd483b00 bd36b475 bdf83804 3d402852 3de9da7f 3d58c39b 3d16f0ec be4f646b 3e41da1e 3e378451 3d6dd673 3d9d7e3d bcec1132 bbe95d5a bd866f50 3e81c346 3ba14daf 3dc8bc99 3e6e1896 ba8cd953 3d93c556 bd4a02a7 39cf1532 3d7eda8f bdb1bea0 3dbdab8e bd1967a9 3d0c062d bd73359e 3e182e2f 3e4ad9a6 3e491f17 3d91d24a 3dc8c820 3dac1705 bd04152a 3e0ffe1e be2293ca bdeb231e bea0132f 3db2db53 3e1842bb bc19e0aa be0c3d3d be275071 3dd2e54a 3dde0f06 3dc95841 3d4b285a 3e85d900 bc1cc339 3d012c32 3e3430b0 bd832f73 bc88de90 be08e317 3e487dc3 3de32fcc 3dd74ca7 3d24dfca 3d6f64d1 be21227b bdc15457 3d72da4a bedd9a33 3be8c928 3bc60f28 3d8dbba8 bbf6954b bcb8ca7c 3d9a64f6 bd7b1111 3e8dd96f bd58cad1 bd851dd7 3bd23635 3c111525 bdc46f01 3dd358ec bd41591f 3e377a40 3e36bc0d 3e291329 bbdb169c 3dcec6cb 3e8fc77a 3a71c4a8 bcc158f8 be58be1f bde922af 3e178527 3e29de7f bb443b58 3c421c8d 3d3d592d 3dfea141 bd18519e be048987 3c05162c bca16882 3e02c8e6 be52f070 be1dbf4e 3d5626b7 be8e7fab 3d74f6eb 3d780c64 bd59c3ea be8eb3cc 3c76b5e8 3d5b9cbe 3df0e0c5 3d926525 bce22ea6 bda4de03 3dea35e8 3df1cb9a bea57598 bd794dcc be808aa9 be34c3a8 bd25a22a 3dc153db 3e7a3fbb 3d5f852b be910cda bda4553e be06bdaa bdc347c1 bbb3a6dc 3d983d6e bc06d112 3e03ba52 3dcda3c8 3ddf7424 3dc479d4 3d6adb51 3d4d119f bdb5a8f9 bc62a548 be430a0c be2627a6 3e62a4bd 3e303f28 be80748b bdf1a401 bcbbcd3f 3e2480b3 bd6ea803 39a2a12d bdf965c9 3d67a642 3e29a638 bde5540d 3cf9300b 3e4a733a 3e07b2a6 3d83dedb 3d8270d0 bd71c789 bd7e2a3d 3cac5ef4 3e307925 beb9016f be43c2ad 3d8a72e9 bd9056a2 be65a9a5 3e1a7266 be715455 3c6dc47c 3e96842f 3c090433 3d75be0a bd93700e 3e07100a be0a54bd 3e6f59de bc0d1e30 be756d1f 3d76d891 3df0e8bb 3e0eb897 3e568139 3e500239 3d020672 3dff692b bc1a71b1 3e40b34f 3e04e6d3 be068de6 be38f242 be0a13d1 3e24dfcb bd45fd23 be5bc5eb 3de6435c 3e065579 3e8c1ed5 3d8ec3e6 be885294 3e08ec2a 3e7f5677 3bbd229b bde5685e 3c0a62b1 bf268659 3c866802 bb3a533e 3e4446f2 3d942b18 3bf321b8 be4bf9d1 3e00704d 3c28fc7c 3cfd62d4 3d728b12 3c923e1a 3d5f8611 3dfa8d65 bc094563 bdd07aca bc9bda01 be878388 bd515faa bc516a7d 3e6de7ca be95a8d9 bdec1ff6 be52ec5b bd505528 3e1daf99 3dcc1735 be669f95 bca15c9b 3e5c11bf 3b70329d be46eb6a bcbe0802 3e38d716 be27aa44 3c52de59 3e583515 bcd259b0 be448a56 bb4cccbf 3d0ebec6 3e4af7cb bcae418b bde19584 bd754b05 be317da7 bd8b3e7f 3e262b47 bd450902 bd1d1ca5 bea47cd8 3dff73cb 3d15fd5a be177a91 3d5185ef 3da7149c 3d8f69e4 3e17dbd5 bd9ed3f9 bdf31451 3d6b1b8e bbadad4a 3d3e215c 3c4686c5 3e3b6fbe 3d8fbc4e 3d3e6f8b bebaa259 be528624 bcda3114 3d947015 3d5e97f2 3e189592 bdeb6ac2 3dfae827 3da91b0d 3e1546d6 3dba7370 bca2fa4b bc7aa4d7 3df76809 3cf53a2d 3c89e812 bdd57ef7 3d8b1025 be07aadb be4f6a86 be6a4f7e bd4f9b2c 3dc6c01d be4256a1 bda9063f bdf7c3c0 3e3de2b3 bcd2de28 3d545550 3e91f9a1 bb8044c8 3d7ee0bd be066540 3cad7de9 3d83f5c9 3d7ace28 bddff115 be3969b0 bc8587a5 beef6337 3dc81f58 3bbcd11d bd664840 bddccd0e be701641 3ca0ae5c be4ac3eb 3eee5ed1 3cda8b09 3de68b3e 3e082d48 bd68aa4c bd2d69f0 3e35e54c bbc763dc be3bac23 3eb84e5d 3c856a49 3e05ed93 3e33fc66 3c76ed2e 3d7aad15 bcd0ef29 3d8307b3 3dc2971d bd8cddfd bd284025 3df52ef0 be88053c 3e12837a 3e2dffd4 3e20e649 bd532b1c 3d10c92a 3d732164 bdd2b867 bdaf02ef 3cfa8690 bc3b96cc 3d853873 bc66cab2 bd81abae 3d93936e be198af9 bcd7fb12 3c87eb6f bd9171ea bd89d350 3d3a55b4 bdfd0ec3 bde7e2c0 3e0c1d47 3d8ba1d4 be0b4de5 3e62ce02 3e00c062 bd893ff3 bdae9e5a bd0bb35e 3d6a1e87 be25ec60 3d8a0f9d 3e3b8b35 3d2ad048 bd118553 3ca05446 bd3d2883 3e0a8c11 3e4ec2f6 3c3b3cfd 3e2aabf6 be23d06f bdf68d15 bdad5906 be389581 3d9ab40a bdc3e168 bded61bb 3db4debb 3e1efd7a bed72bce 3d12f480 bd974172 3da77ff4 bd349927 3de91261 3e630cc1 3e7e495f bdc1cbc3 3e18c39a bdc3671a bde741cf bd5ad3b4 3dfa4887 3cc9e349 3d346783 3d9f38df 3d98c180 3d2a62b3 be0acddb bdd64011 bdb6aed3 3de3b6c5 bd44a407 3d9f4475 bd6beaa4 3c882c83 3d68053a bee66fde 3dab7b9a 3e124b88 3b2ee521 3d425e46 bdd75884 be83f8b9 3db06133 3d257bf5 3e475cf1 bec9dd66 bd566c57 bda948fc 3e0abece bd4fd615 3e1b209b 3e576bff 3d1a52c4 3e513a17 be197145 3d340dd0 3dc4487d 3e00fb42 bc7c6eb2 3e467617 be985bf8 3d7dd63f 3e95377c 3e07f7f3 bcec7244 3ce969ed bde40ea8 3d606762 3d6b557b bdddd1d0 befd9d02 3e595007 3bfef75e 3e0bace3 bb956d3b 3c2ff888 3da85bb5 3d9bc7df 3c330913 3c9f2ce2 3c641b1f 3de32e68 3dfad733 3d244925 3d5d57bd 3d05a503 be5caf09 be09e69f 3def872e 3e1bc9b5 3c0b744b 3de94dcd bde8e0c5 bde588c0 bdb9fbb6 3e1400e4 bc115ebe 3d6891c5 3e3e3346 3d4de089 bd4e3b84 bd4ff128 3e86af79 bd2e5438 3c3d54fa 3cb2ea7f bd442cb9 3dcf85f9 3d8d4978 3d8841e0 3e169e39 be2568f5 beb0dd6d 3db90d2f bd94dc40 3e432f64 3e21b6db 3e1ecbf6 bf2506f5 3d578306 3de2d1b3 3dbdba7d 3d8c3846 be1bcfc9 3dcaa2f4 3e4dd757 bdece08d 3d22b712 bd713e1f 3e158e01 3d8ef0ee 3e685b82 bdfae163 bcee8370 3e1919ac 3e8d3990 bc5b5537 bdce7d5e bb9c2c97 3d908da8 3e50e4b5 be0dc619 be09491c bdb9452b bd4c8f04 bd9de68d 3d90237c 3e37fde8 be3848d5 bd114572 3d750b93 bde57921 3d9cee5c bd380da9 3d3cbc40 3d34d03b 3ce88a2a bc86fb33 bd23530d bcaead7b 3d47fdde bb804819 bd8c14ab 3d9c9cf7 bd629bc0 3bca3869 bd191439 be4f46dd 3df7f77c bedc49c6 bda19a2d bccf9aa8 be6c9e65 bc8fdfe2 bc9cd350 bd3c9e9f 3d880a53 3e9e33e1 3e55cd22 bd2ef1f4 be9a6375 3d22ab1c 3e004057 be5800c0 bdb3a2bd bcd65531 bd282191 3e7a41ff 3dd10c23 be0e88ed be1b0abc 3d29df6b bc110e6a be2bef5b 3c9a5a9a 3e08716a bc85e155 3e137a08 3dc474c0 be7730cf 3ed250ad 3c5dee64 bc21a96b bce8c790 bdce81bd 3e82d702 bd95584a bd79a9f4 bda69e6c 3d94c754 bdc8bfc6 bd38d670 3e5ee907 3e05aef0 3cc18f8e 3e03bfb8 be2857ab bda2eb93 bdc5adf8 bbeadc72 bcba1033 bde191cb bd8026d7 bdcc01b7 3dab3e80 3d7dab18 bd6a33d1 3e665ccc bc70a785 3d7b7075 3e07c151 3da91dc0 bd763d5a 3de054bd 3bca7fae 3db50769 be32cb88 bd61a657 3cb81ae5 3ccc8c48 3dc242e5 3d880e33 be3680cc 3ea9edbe bd4fc0c1 bd8fbbb5 3e656dd9 bde6c1f4 3dca0b27 bdf729c9 3d330e42 3e4b1a69 3db06417 bdbaa999 bc06d695 3d7f7205 3c1c8c1c bce6634d 3c0b692e bda810ab bd08fac6 3d9ff534 be43c59c 3dd2261a be11b3dc bdcd4110 3e1f858b 3d90a251 3d37d217 3e3985d6 bdd54474 bd489919 3d1abf30 3d171f6e 3cbda513 bd84249d 3e437a99 bda978d1 3e8a2509 3ddda34b bda22475 3d817faa 3e05c8de 3c1635bb bcf97051 3db79db8 3e259f93 3ddd5e06 3ce369f3 3dc9d276 bd1bb944 bcb6cecf bd8d3d83 3d54f9d8 3de08c11 bd1358b6 bdc341f5 be914adb 3bcf1272 3df74be1 be00563b 3da45bbe 3e27e101 3d3baec5 3e237d4f 3d41baaf be011d37 be87c414 bc950196 3da67b6f be4bea9d bc2bba00 3e0ef71a 3e17975a 3dc56a99 3c3ee604 bb4288d7 3da0a31a be1a95f0 3cdcfeab 3e19eb2d 3e566ac6 bcffdaa3 bda9b82d 3db0196d 3d424bde bd370946 3e8094fc bdc0bf90 bd97327a 3cc212c7 3df93c49 3c1502ff bc61d654 bdb4cb1d 3d5c40a9 3dc1cb16 3dad841b 3d82747b bcecbe98 3ca79f8e 3db4303f be1857dd 3d848e06 3dd11348 bd13d6c0 3dfb605d bc349125 3e128cc2 3d9f79a3 3d92f385 3b3f4477 3d811e0a 3de3f16b bc3ac407 3cdfe8a7 bca056df 3c05df3e 3d4f99ab bbfeabbc be81ed46 bca72019 3d16834b 3e37b93c bd2186ae 3be6ed5c bd211d24 bd07b8c6 3d8adadf 3c9750a7 bd108ff6 be4f90b5 3d1016d4 bd4ac3ab 3d992ca6 3debd24f bd2fcab6 3dd9d0a6 3e02d7bb be4a7c6a bcbdf553 bd864ca9 3de7a8c6 bcb46b66 3dcffc75 3e4ad0bf bd29c6ca 3da7ac33 3cdcb2e8 bcc609f3 3daff7a6 3e75deae be5bb590 3d414daf 3e29c7c4 be24f853 3e2c742f beb3638a bd434516 3e6275c3 b89e061e 3ebfa44f be336bee 3e8f5cbd bd50db78 3d5b9499 bed2fd93 3c97983b be811353 3d157918 be1628c1 3cd87bd6 be26a366 3dcc4e22 bdcc4e87 3e412036 be9c9c46 bd6412c8 3eb2af70 3e3c5a5d 3d443026 3d139a66 3ce28360 3da4e8b4 3e246124 bd8c4f9b bd7fd05c 3e13d0e1 bd6e6d76 3ebcfb27 bd0bcd13 3e211847 be2fc129 3d8359d0 bde3b657 3dda764b 3d9d7ad9 3e13ec5c 3dc3f911 3d510a90 be717ce2 bd9d54c5 bd61ee91 3db06212 3e3dc295 3e28cba9 be26a720 bd71e594 3cf5b22e bd402e06 3d887c44 bcf78ab4 be0f90ea 3e59e046 be0edd7e be594ada bdc489a6 3df9574a 3e939045 3e4166ea 3e070de4 befce43f be6f55a6 bd89795d 3e6ae64d bd3cc5c5 bd5af2fb be80db6f bb4d2507 bb3a84c3 3e983628 3e474efc 3d6ffcdc 3d524e8b 3ae3226f 3d2b975f 3e2b7ed4 3b797c61 3c93a2d7 3df0c1e1 3cdf926e be36b8ba 3ddb5e34 3c32b9f9 3d861f29 3e6245f6 3de029d4 bd0239c0 3d0c642d 3d0a8ab4 bd811c3d 3dd244d5 bd7eba41 be6b2c2d 3e8d945e be484d7d 3e79abcb bdf5feb0 be15f42a bded269f 3dc50f70 3e18a6ee 3decfd1c 3d3ddc5e 3dde9d65 be920af7 be21d753 3e6276b5 3d17e3d8 b9fe2141 be8ab098 3e09efe6 3ec7c00a 3dae0bb1 3cf10b13 be0758d2 be3444c2 3d5d8c6a 3db1a3b9 bda87545 bee41e05 be2ecf8e 3c961d49 3e8c0210 3e052d4c 3e5c704b be5065d5 bdcc5679 be054483 bce0047b bdc1cd4a be5d0a2e befbf24f 3ac87bc4 3d4ab473 3def72b0 3d94e53e be011939 3e253a4b 3da52a91 be5e1adb bdf282c7 3d497014 3c4e9858 bd3cb5e3 bba4a230 be0c3c20 bdea8e3d 3df55d21 3e91d715 3e899cfa bd2cf16d 3dfd4c0f be89cf4d bf02752f be86e49c be19a337 bdba40ba be8584ac bc8c48ed be72b386 bd604b78 bcf6c97b bdf24933 3e013264 3dd4c6c4 be7751b9 3d037cd5 3e2f0707 3e6c836e 3d9f3b9a bea25e1f 3e683b7d bdadbaef 3e727477 3c546a0a beb7b9d2 3d47118b 3cba03df 3d662b7a be2b1276 bdba5e29 3e350bee 3d18ec86 3e44fae5 3e03b995 bcde7dde bb04fa20 3dc93c26 3dc35db4 3e683e6b bdf9f6ce 3ce66357 bc423401 3ca28cfe bced4777 bdcdd3f1 bd167a59 3e3e380d 3d279431 3c492388 bc23b6db 3ba72a33 bd7cf452 3d800d55 3e019296 3da4cfff bc177887 3e01e8de 3d6c6de0 3daadfdd 3e21ffe8 3d16e6b6 3cda93a7 3e2c45ef 3dadab3b be0cf07f 3e829258 be5162fd 3d87113a 3e3cfa20 3e1dc914 bce13efb be1264c9 bd44240a bdc610c9 bd7dad4d bde4c7a9 bb4f8039 be099ad9 3d992f39 3dc7751b bdb1d0cb 3f1d5808 bc790758 bdbb9c6e 3db71bad bbb4d4e3 3ef037e3 3db05eb7 be856fe8 bc8e8ee9 3d5aeffe bded02f4 3b1648e5 3d66391a 3e221d43 bdce175b 3c8ba0ec 3db52609 3d8a43a9 be21f7f3 3d86e846 3e42bea2 be17c581 3e231977 bc4cb397 3e11e546 be4e6981 bd63549d 3bfdcfab 3e239b54 be3bbfbc 3d54301f be0cc581 bdd20b97 be12cbd1 3d6d1138 bd0a1915 be3c9ec2 3c8f20b1 3a11096e be1d7d75 bdb0a38d 3e0592a0 3ea21bbc be194f13 3e84fe26 3af01cd8 3d6adf19 3d024e85 be953246 bde6e66a 3beaddba be9b6b21 3c65a7a9 be21c3e2 3ddd6002 3dd7f91c 3e1b30ee be6c5c5c 3e0a4d4d be327f0e 3dcecf39 bddb51dd 3d1364fe bdb44718 be1cf2c0 bdba0752 3cff3af4 3e9c3055 3e182d3e bd674aa9 3cc896ea 3a7ba7c5 bc56fb1b bdb63fa9 bde80a12 3b962686 3e930b1f 3e00a8e9 be0b32f2 be063c54 bd9c7291 be32dae7 bc0f14aa 3d834a78 3eafe838 be0e955b bd28902a 3ccf8cee bda15fc9 3d7b83a4 3dc1accb bdf98267 3d5cf1a7 3df6a740 bd7cdfdc bc67495e bd75390a 3c31bcb4 bd4e4105 be29910e bd437787 3d9e489a bd8f8cff 3d1b1de6 bd8d1179 bdef5c17 bb44463b bdcc0ab9 3e14b0a3 bafe5799 3d1940cd bc9a9085 beb932a8 3d20f3c3 bb592152 3d40c109 be36e9b9 bd80b2eb 3e03fbaf be873a8f 3c3cbacb 3c4dfcab 3ec75600 bbcd3d16 bce227aa 3d1300be 3bbe9a9b 3ceafda3 be1a5d53 3de8ca30 bd8771b3 3b7c2cd4 bd2fe164 3ed81610 3dbec0aa 3d3435fc 3e6bf693 3d9b4440 3c2c8e5e be8a209b bf020e1f 3dca8a8d 3e115015 3ede6ff1 3e3686fb 3e8ad4b5 bd97d982 be224f5c 3e2ed83e be8510b6 3ed91a05 3e5c077c 3e156dcf 3dc83ce1 3dfeacf5 be13a8ad bd546a1d bd2a8c9d 3e1e13c0 3d179a77 bc9f8c27 3e042543 3e44272c 3df83f14 3e68c42e bc25dcad 3da02406 3d93d6a9 bde5d0c0 bd257f42 3eb3316f be48f3ab bddb0f78 be466523 be340a94 3e86509c 3e8c51be bef928eb 3e74f7da be6896c0 3e05219e 3b87330c bd76c81d 3e177d16 bd47253a be43b5d2 be20e463 be38440a be6ff40d 3f088d70 be2ab3de 3df84210 bdf0f533 3e82cbea befea2aa 3dd42da0 bd5271b0 beabcd8a 3dbd7a19 3c6d12ab be800314 3dc16505 3d1706fb 3e5382e7 bd493ffe bc7e3d0e bd438197 beebcdf4 3de2db6e 3dc59efe bc5d7db8 bc3f6a9c bcd02f0f 3d562314 b9cf7441 be1fe165 3d9705df 3de4c41e 3e8f6fcb be7bae8a 3e6a6725 3d8e0c94 3d84ed13 3e8910f3 3e62741f bc5937ed 3da485e6 bc796d2c 3eb12055 bda2bba5 3e029da0 bc7a16fa 3e004745 bdd0f448 3dd80b8f 3c4955db 3d44b550 be8c1945 3e1e22b9 3ec44bc7 3d47abf2 bf0270cf 3d058f7c 3c207712 3d8e278b bd30ebf9 bd363d36 3e28f353 3e9342f8 3e05bc19 be1ce3c8 be7b52dd be2515d2 3e8d63b0 3b14c365 3d6ba541 bf0136dd bdadfb8e beb86ad2 bcbc453c bd738756 be2093f0 bd938915 be27d0b5 be362d4f 3d9f26f2 3b144028 bcdff91a 3e24909b 3ceb254a 3de569de 3d8838cc bb4598cf bde1d35a 3bac8058 bc395ea5 3e81efa1 3e1f9f55 3d937d94 bcd21882 bd59849c 3e0e07de bd964dfc 3d08197b bdd8d545 3e4c6d9f 3e113b5a bdf7fabf 3d9f5441 3d971d0c be54fde1 bd9dcb48 be8b34ab bde44fe7 bbfc944d 3c688044 3d5b2580 bd131d36 be66f41a bd11fcc8 be4c8a63 bdbf3ba7 3d93878f be4a0b4c 3ba21fc2 3e3c38c9 be997e81 3dcd30ff 3db21409 3d5d83d7 bbc00d0e bcb04718 bdc62a4a bd136d21 3e9a7b50 3e84dd94 3dec49a1 3e20c8c7 baf7c422 3d5332a3 3d09cadb bd86e255 bd5275e6 bd51efa7 3decd368 3e10efa7 bd966fee be030a51 be940e80 bdce3bde bd2c1b1e 3e5ccd67 bdefad1a bea122fc 3dccba33 3dbd5109 bd43cf95 3dd22bd9 bde75091 be4e7789 3e8a6ebf 3ba48660 bd898f17 bda913f8 be333a93 bdb22771 3ddc2177 3c98090a bc481835 3d7916ab 3dd00547 3dad848e 3de24928 3de5d9ba bd47b931 bda88875 bc67291a be44e54d 3cd660cc 3d448e33 3db95541 bced7550 3d91b242 3cc49744 be227a18 3dd37b3b bd89f9e3 3c2f6a8e 3e1a8ecc 3e566305 be2ef9bb 3dccd5ae 3e1942a6 bc9a8372 bc83eba3 3e17024e 3e88b693 3cc279da 3e977600 3d99e969 3e383802 be91b323 bdbe1783 bd4cfbde 3e259a9d 3d9f1ebc bb116ece bdb13224 3ded3f76 be75d03c bd8b22a8 3d96c4af 3d9e5c04 3ddab143 bcaf4450 bd451cb5 bc9e550c 3ca14509 3d95b8f4 bdb6eb4c 3de525d2 bd5bee59 be2440db be3b4b60 3dd9692f bcd1d9fb bdfa455f 3d6da631 3d6e1f1b 3d94de82 3c11fb86 bda2b996 3cf6cabb bd261606 be45b10d bd974635 3d82ddc3 3d79a880 3d9965a6 bc918c7f bdaaea10 3e0101b9 3d8501e1 3dfadcc1 3c390818 be85f034 3ed4bb15 3c52cdc2 3d9b07ec 3de28a59 bdbc2abe 3d22d228 3ddbeb3d 3e41a3cd 3e10bfed 3e070dc9 3d23a5bf bd52aab6 3d8baa23 3e6ab270 bc8abbe3 bd9ae35b bd920902 bc0c403d bc96be9b 3e8c7163 be0ab705 3dd4ddeb be3901d0 bdc60e92 3d7cd2eb be0a36b6 be0402aa bd5c70af bdd245cd be0bdcbf bea3787c be0e8492 3dc2067f 3c9e42a6 3e856a23 bd6bc2b7 be0277af bcf2d8b8 be202f4a 3d8ef329 3cf8edc3 be10c302 3e63042a 3d4e266d be17ff31 bdac614e be09f2e2 be4362a1 3e2b0550 bdb1ce5b bd0558ea 3d375ede be26bb3d 3d96d173 be534648 3da2cf50 be0c6a3e 3d1c1453 bdc1e4cd be209ff4 3d74bf99 3da9a86b bd227870 bc02e68d bd43614b 3ca8b5f2 bc69a5bd 3e0f66d8 be3f92a7 bd27d824 3d979d99 bdd7d317 be0d33a7 3d7a9c51 bc05b8ab bcfe8019 bda3a4e9 3dd32deb bca2cdec 3d79b874 3ea44cf6 bcc121eb 3e4be3c7 bec32408 bdfb8dcf 3c7825f6 3c2e2b20 be095e7c be2fdf7d bd5aeeb3 bd8f8a84 3c87dc7a 3d87cd26 3e04c18a 3cd8ca06 3db0615d 3d9687b6 be17eb85 bd86ae97 be19990e 3da1813e 3d141098 3da1cba5 3e0d2c66 3d35e883 bdb3d538 be0ec20e bd49214f bdd28761 bcfcd8d2 be78aa9e 3d801b53 beea32b8 be5349af bca3fe95 3dafd168 3e03c5ab 3d0725f1 bdf1790d 3e54cb99 3d41013e bdaef64e be07d311 3ce46f20 3c193215 bd8975c5 bd79ffd7 bec3ff2c 3e0beead bdc683a8 3e40b89b be8dd522 3d87d91d bdecee84 bd61540e be8bb634 3d607753 3d98965d 3e05e17a 3dc55c76 3cd9b361 bd5b386d 3eafa588 3da2c779 be3541d2 be0c1395 3e01065c bd7a2dfc bc63a53b bdbd22b1 bd9d944f 3da10f0a 3d38411f be35a2e5 be1d0c88 be2fb9e1 3d2835bb bd9139e4 bd3e419c 3e07afc3 3e1fe7f7 bd9acfea 3e39e6a8 3a3e981c 3d3eb059 3e01cb6c 3e0ef7f2 3cabe6f3 bd94d6e6 bde157f3 3e82fcec 3e35322f 3d064aad 3dd00d2e 3db4324e 3b7518c1 bd40da25 3dc8bee9 bd4cc4b8 be47e173 3d8eca72 bdb5f366 3e16eb78 3d2f48f4 3da599c8 3e25a0d9 3d0df963 3e1d3ed8 bca5e1fa bcd93a56 3dc2a68a 3e20c1d1 3e707b5f 3dfc1f70 bd228a66 be0765b8 3dca3e5d bcce600c 3df9fc2a bdf801ec 3dc079ab bc5285db 3e569633 bd8987df 3e0d7340 bd6edf2f bc9d015f 3bf4c0d6 3d02d80b 3d70f6de bdec2bf7 bdc5e5ef 3ba119c1 bcfbe943 bc943464 3cb1db25 3db46f04 3df64491 3d9b75bb 3e399dfa 3c1ef763 bd2c3eec 3d8774cc bd853791 bc71f9df 3e999e9b be239783 3d1c6681 bd036a17 3e95a32f bf00fb36 3d58a507 3ded7fbb 3d4418e7 bcf5adc5 3e2cfa3c 3e757026 be8ce2c4 3d3fcded bc98e04e bd904806 3e8f094b 3e270f46 be974b06 3e4b5fce 3ea2cbb3 3e677c1f 3db3db2d 3c6feb38 bf0e308b 3e847011 beb2f3c7 bd9d8065 3e1f4854 3e31b2a3 3b8e9fc1 bd9a74cf bd2da0fc bf047a39 3dd433d2 3df5018f 3d9d2704 3f197e28 3e0009b0 be34474d 3d2515c0 bd3e5037 3dc8d060 bd608c28 3eb5ca1f be883e82 be475cd9 3c10f4ab be14adef be32c629 be102d0a 3da4a164 3cb9828c be282faa bc83eb83 3ddca61f 3e43b4ce 3e05fb8d be358530 3dcb0fbd bdef51df bdccc85a be4ca748 3e96af9d 3d97152d 3dfb1a4b bdb8b7eb be5d70b5 3e26de94 be11998c bd0a28dc bcf17de9 bdee40ac 3dd56aa2 3db215c4 3e909d16 be1e8114 be42c763 be20cade 3c6bdd4c 3e192471 3d4a4f73 3e519fca 3c8468f8 bd84e976 3e0dfe59 be12d3ba 3e0e4192 bdfac85b 3e23eec4 be353114 3d1f07a0 bd0ef194 3e3b10d8 3bd1f4e2 bdb522f8 be16daa7 3bc46df2 be0f96db 3e0e5207 3c8c6951 3ddb052b 3d93574a bdccae37 3e41bafe bd99f2ea be37614f be5769cf bdad2320 bcd0fdaf be9a1227 be019b73 be58626f be74a46a bdbba311 3e730b93 3e243c9b be92a8b0 be6405d3 3e6d9562 3ce29144 bdf09fbd 3cd0bf7f 3d74e3df 3e05089d 3e48ca92 3dda6c35 bde80327 3e03d336 3e6661fd bdb80e57 3d87dbb4 3e10fb06 3e96ceb0 be9da725 bf04ba89 bc746ede be27fdcd 3c2987ba bf2fd940 be5193e1 bea663de 3e5c41ae 3d3de690 bd1e662d 3de09823 be5279c7 bdabf683 be31b862 be7a54a2 3e5dd5c9 be88beba bd549772 bd27e597 be312c01 bdbefb86 3e6ba759 bf026e68 be19e5d5 bec2233e bd1475c2 3e9671f1 3dc35552 bef6605c 3cb40dab 3e40d3a7 be5a5772 3db0b80a be166e85 3ce80643 3dc42258 3ea1ca7f 3e7573ba be35155b be00c339 3e1dd09d 39d9efea 3e5e001e 3df8d874 bc57ae0e 3e9845dd bdac4e63 be5345c0 3e8a9307 3e167756 beaa868e bcaecd26 bdca0eae 3ec2b145 be121ba7 3c937bd4 3dd25c7c bd8ba8cb be61bb16 3e6804ae be5fddeb bdfe4ab1 3df176f9 be5abf10 3d10ca67 3e994fb4 bf12f3db bbd95792 bd3a4961 bd014ea0 be325a3f 3e273360 be9fa0d9 3e950851 3e1f9269 3e1568c1 3e2e54e1 3d0012a9 becaf0cf 3e35d521 be22ea4b 3e38196b 3ee68992 bdc5f973 3e53bd8e 3dd3f5b0 bcce70c5 be00ccbd be715429 bdae7a3a 3e19d08d be16e55b 3db3ce0e bc977e36 3da76009 3dce0846 3d845151 bd914bee be841ada be962480 bdacf901 3eb97397 be770fb7 3d99fd81 3bdfe5ab 3cb3fb06 3d4e9021 3e0777c0 3dc25496 bd6b1457 bdbfde4e bd0490fb 3de2cd79 be4c35f5 bd845573 be831a34 bd8594da 3e068d38 3df68e6d bde2e0ed 3d18939c 3e1fc46a 3ef474a9 39a6e45d bdf5705e bba50244 3ddfadb5 3c876f2b 3e08e2c5 3e14632e 3e8bcf36 3cbc7e4b bdb956ca bc891c8d bda9d1ba bddae291 3d855525 bd5559e3 bcd6b30f 3d859138 3e09b6b6 3e185965 3da2c29c bd046e73 bd54eebf 3d1bbdbe bddd406f 3d3336ea 3d2699bb bcbd52eb 3e03850f bd1b6c9f be8f67db 3dc2294c 3d04e12c 3e5fa76d 3df5fed9 bd98f00e be19e00b 3e3fe8b5 3e171c69 3e46c8f4 3d86cc68 3e0f6b10 3ce84fcd bc0097b3 3d116794 bd62857d be0012f8 bdaa7e44 3e69c035 3e81f67e bd8e6c14 bc71e1d1 bd31a794 3d7a3b3c 3da18752 bd7756c8 bd5de53f 3e0fc9ac 3dbae577 3c6e74b4 bd61732c 3d02ffb5 3c911569 3dec7556 3d713685 bdab940a 3e767f9c 3d27f6ed 3dc0c765 3dd47b83 3c8e8628 3d91bea1 bcab5ab8 3dd216e3 bd200c17 bdef0fcc bd786ea9 3df4bc70 be0ba7eb 3df961bc 3db30397 bddbb6d4 bd29fbf3 3d2b3d8e be23ba3a 3dd62913 3c34478a 3d5fdae6 bd12af51 be397ac3 bda40989 bd848d1c bc2ae873 3d7f25ad bdd364dd 3c71ca86 be866930 bd07a1b3 3da18f78 bd3ccbeb bdca6221 3e74478e bd6ebd0a 3d8ebbd8 3e0d7af7 bdd60ef1 3e15185e be0a8a89 3dcf1e27 3c848a2e be6be094 bb519698 3e21c889 3ed7a983 3d9f948f bd023ae6 3e157ca3 3c757cd9 be0141ba 3b421198 3e5130a6 3c1f881a bcae75e1 be11af2c bc9a1d27 3db9eb65 3cc9f32d 3dc1d302 3c1995fe 3dd685aa bc956c96 bd490ed8 be598786 3cd0a157 bd88b543 3ee3532a bd940106 be786c37 bdb58be7 bd55280a bd60dc2e 3d4b4902 bdd18d8a bd9d1944 bdd2a823 bde741df be4b8d81 bdb6edee 3d89e4b7 3e694ce4 bdd6ef8b 3d3be2d9 be1e6e8a 3d3ac64c 3df1d8e4 bc0f93a4 be885fbb be003903 be2f3366 3d7d7cfc be178422 3d340fe0 bca92b63 3e03522e be248c05 3d370369 3b262395 3cfffee9 bdf24a36 bd46d97b 3cea4735 3da0e054 bd8e5c0f 3e1c539e 3e74019a 3e3a5a20 3d805bf5 be287bbe 3cb4873e bd6b8412 bc8a2d6c bc69a965 bcb567b0 be3b7bc9 3db1db22 bdf3adb6 be3d8aa3 3da2d854 3d43cc85 be2b565e bc9189a0 3aa541f3 bd9c8b08 bdf1a2f2 3d4a3b74 3d0140a0 bd7239d5 3d7953c8 3d3b85a2 3dafd712 be72b299 3d89114b 3d2fef99 3dfa20d4 bc20ca10 3e07e25e 3e1651ba bd2c7cee 3cf375a0 bde098d6 3d8b502f bdb85ff5 3cb58ec8 3e2fc200 bd2a7100 bcd1b20a bc512173 3d1932ba bc8b8bcf 3e4abebc be6b50e5 bcb0a9a5 be6d912b 3b9d9111 3d96a583 bcb69184 3d0147d3 3dcf741c 3dc97285 3ddf76ff bc9b0530 bc5b8db2 bda6276a bc53b045 be249602 3e53b453 3d83e752 3dc7127d 3d9a5fe7 3e32a4e7 bcb8b3b2 bec764b5 3d8fe73d bc705ee0 3d9f4f94 bb9670d5 3da86386 be178a69 3dbe90c9 be51d9a8 bd8895d0 3e2eddda 3e937c6a be290569 3e9e291f be83baec be9ac5a3 bdb1d855 3dec8cb3 3e7f3330 bdf7958a bd5e2183 3bf0ff97 3da14a81 bcc8f553 3dc8304e bd090c7a 3deacdf3 bdb7d627 3e064865 3e308600 bbaa2b4b 3d800f03 3de471c4 be259c90 bdfe2e60 bebd3e13 3dd53fce bdcca419 bd3fc9c1 3e17a271 3c2ec702 3d05a225 3da7748c be2707db 3dc44d72 3e331277 3e516128 bda050c6 3d0a7ccf be84a540 bddeb308 3ed6d02d 3e04cee6 3d886ed2 3dbbefd1 3ddaef5d bdb5fc3e 3e5727c7 3cf47625 be9ba42a 3e51c7c7 3d8987b8 bde8b588 bdc4dc30 beb98591 bdaab7c4 3d40c517 3e235a6b be0dc0ca bde18d99 3e56d3e9 be2dbaf6 3d039787 bd305f89 3d811052 3ce7bd1b 3dc88c1a 3cb00b71 beac161a bd17fd6b 3e2fb859 bd40d595 3e8c40f4 3cd72532 3c3028b9 bd8af215 3dcbacd8 3ec5ae5a 3d2a9e86 3d62c56a 3d8dee44 bcfa896b 3d29d106 3e94297e 3e4db689 bce32a86 3dfbc659 be82aa68 bdfa9524 bba42196 bdeecbbc bd8604ab bd5147d3 3deff315 be1e91a4 3db02065 bdd93520 be08847a 3e355d58 3dffdd94 3e81e556 bd940a83 3e19364a be13be92 bd5591da 3ece4416 3d3e6425 3d9aa1af be14ee8f bd321d6b 3e16ec98 3e06afad bde55a94 bda34cb1 3e7b0faf 3e0af757 bd805a85 bc8b0bf4 be4fb948 be72980b 3cb22a2a 3d8a8237 bc96c6db 3d531b63 3d2aac21 be349465 3ca81405 3e116aab 3e4275c5 bdc5073c bcea1aaf bd8cdb3c be038c51 3c183605 bd24a0bc 3d244364 be661cad be0eca24 3e2b833e 3dd439df 3bedec03 3dc98dff bdfe1aa7 be040fa7 3dd46462 be2fba89 3e0641f0 3c230bf0 be244774 bd5356c7 3e561aed 3e4d2b60 bcd069bf be411de3 3d8578ab 3dc6cc82 bd863a2f 3d08ce7e 3ddb157c 3d864084 bca29806 bd83529c bdc611b0 3d80908f 3d3797f2 3ea90ac9 3d80b4da bdfd8fcd 3cfdda5a bebadfb9 3dc4196e bda78ec3 3d3f5727 3d37ccac 3e16384f 3de1826a 3dfa2698 3ddabacd bcd10a5e be041dd2 bd1e80cc 3d400ed5 be4a7a28 3d78fe57 bd8147ac 3ca7d267 3cea9142 3e376656 3dd6afeb be10ec47 3e095a65 3e0ddcea 3d95b5f6 3baead65 bd8d7237 be07d638 3e324496 be297214 3d3fb60f 3e2b6d5b 3e8b31c3 bd590fe4 bdf49b5c 3df11463 be14bb1f bca65090 3e19b207 bd64aed0 bd12e115 bd31d17f 3dc7938d 3ca44061 3db2bb6a 3e1e35d2 be22bed4 3d899419 3d8010c8 3db6e0a8 3dcec5b0 3d25823c 3d0c3e14 bca4ac3a 3de35771 bd246859 bcf49669 bd6a9b0b 3e06c8bd 3dcf1c3a 3e24d2cf 3c0494b6 3e1f9bd4 3d467965 bd8dd8fa bc3b44d7 bd26cb43 3e0eb0ce 3d11b07b 3e30684d 3d0668a0 bb570f5c bc1a12ff bbca2397 3bbc845a 3de7e597 bd8dad19 bca905c4 3e5d2885 bdaa2a44 bd41048a 3deb6e99 bd270132 bcac22f3 3cd7498e bd027136 bc679262 3dcd3fa5 3da44d89 be28b1fb 3e1a625a bc017637 be4b38c5 3de1d185 3ddcced3 be884a8a be1b87a9 bea0871c be9d8489 3e35e56c 3e8d6a1d 3d1822b7 3d5fc7d2 3b8782a8 be089310 bea508e0 bdfd8f54 bc04db2b be1571d4 bb32ce8e bd8b131a be8a130e 3d010d72 3da85d08 3ddb7abf 3dc4119a be2c2f83 bcb4c695 3bde9676 3dfcd4b4 bd9ddf3d bbec5b94 3ca44838 3d894049 3b860a61 bf084b78 bc0e7047 3daf7c37 beef5da0 be10ba0f bd23acae be670430 3eb07387 bf44c44e bdbca6df 39b1b4f4 bd929e4d becf07dd be34daef be3e67be be0187a4 3d716a5a 3e3ebf82 3c6c71f4 be83ed08 be167a70 bcb1bf24 3e472edf be32952f 3def0d05 3e80483b 3ea2b78c 3e35fa1f 3d762eda bc19bfdf 3cc2af11 3e98de72 3dec2ff9 3a9f4266 3c117b8a 3e7b9472 3e0b24c8 bec4fad7 bcbd5259 bde9e824 3dd1e25c be2f684d bd93c8a3 bcd3a790 3dbb30fa 3da9b872 be8a95ec 3e58ee1c 3e3d03be 3d141f46 be838a34 bdf628b6 bd7150a0 3e2f8277 bdadd7ab bd03b39f bd65d7fc 3dac745c 3e10ab30 3e1bf568 bd8e149a 3ca1498e 3c91d1e8 be89f339 bcabd716 bcc1fd3c bbb82099 bd4aef74 be3537f3 3e35359c 3e4b58f3 3e4b3247 3de4ad0d bdfd23c7 bdf1ce84 3d143fc9 bd0ef1c5 be1081d9 3e5f2ed6 be3ca592 3e7b46f6 3e2cf52b 3e8d0bfb 3b12e0da 3a4c7af7 3d3da672 3ee29f01 3d742f1f bcb769c7 3e1aa391 3e3b7433 bd753ce0 3dadfec7 3dbbc08c be489e00 3e163b79 bee0b20a 3d487219 3ed1d2cf bde5b7ec 3e10f6b8 3eb8fdbb 3d17bfff 3d41f2f8 be8d44e1 bd6b5296 3e6c22fe bef1d61c bd8cd1cb bcb85460 3e8d7854 3e55f3dc bddea215 3f14b4e7 be05917f 3dc1770a be52f627 bd80ee33 bdc350bf 3d3749d6 3d8afc96 3d873ee1 be384e0c 3d28b2b7 3e0aa614 bdf6d95a 3de218fa bd928bb0 3e8e597b bec30539 be03e79a 3d30d7a9 bc99600f bf3ea1a6 3e19df6a be299820 bd2e7c09 3e796ee0 be83cce9 3dab5f99 3e3d6a2f 3cbc452a 3c83bc94 becf8d7b be6aac0b bda75ca8 bd66796e 3e3b8e3d be109b9d 3e148721 be324c78 be0baffc bcd0b914 befe72ee bdc32fe8 3dae5854 3dcf3e7c 3d5f016b 39873231 be3fd1e8 3e07b9c0 bc5adcd0 3cd7883f 3e704ed9 bc6f3936 3d9ee9aa bd87ea69 be1eab31 3e8ef8e6 3cefcdef bdaff106 bbdd04d7 3ce5c21c bd562622 3e170b2b be6533bc bd93eb04 bf232ecd bdb6a239 bd362a57 3e499da5 3e1ded4e 3c9bc10f 3db30dd7 bd055bca 3ca0395a bd6c270d bc976e82 3e29d212 3e0af4c6 3cbc8b9e 3cf12e8e 3e8686c2 3d9968fe bde2420c 3debe9cc 3ecbc58d bf3be86c 3d434f9c 3ccc0525 bd2d3525 be047933 3dcb098b 3d80e9b9 bde1cda4 3d7c3c4e 3dfd92b9 bc1ac188 be2bd76b 3d3d46a7 3bb50e7d 3dcfc76f 3dfb1afe 3d38b57a be5e0754 3e3e4403 bda4e659 be00d2bb 3e0bc2ee 3d9e3934 3d948313 bcab8cf4 3ccd688b 3e3a5677 be018b85 3e85adf6 bd8a988d 3d087ccb bd25e7e4 3e2647f3 3e3e183d bc7efd03 bdd506c1 be51dccf bb064379 3dc8480d be27ee41 3e34215b 3ede3d6a be36d8d8 bc71ea56 3e809d03 3d964064 3df88d9e bdad68f7 bd6ec644 bdef464b be4d94ee 3de54b2f 3e24aff6 bd9e9a5c be6177e5 3ce39602 be54f9b5 3ddb1146 3dd10871 bde875d7 bd0b3b1c bdb35bba 3e65d118 3b82a5d9 3da5298c bda34bb3 be269053 3da16498 bd6cebe3 3d821b39 bdbd660a 3ccd7352 3bdbbbaa 3e485f9c bd3f394e beb93285 3cb3ca2c 3d36b86a 3e06320d 3e3e6933 bd129c61 beaad0dc 3d9afa46 be2aa637 bc91ae69 3dddf5f5 bececc55 3e0915a8 bd96959c bdb85678 3c32b62f 3e162b43 bdbdca74 3d93f85d bd8ecf9b 3d40d7d9 bce43ddc be17517c 3dbf3f90 beb23c67 3e4e6690 bcf0b8a3 beb175af 3c53f660 be133fc5 3efb52a7 3966f1c4 3e197747 3d9ae847 3e2f800e 3d4cbb0f 3ea96fa7 bdf363fe 3de7a0d6 be849897 3caedc7d bcbb0dcd bd7bf79e be2694af 3e362281 3d8fe24e 3e5dd2fb 3d43d96b bd10dbbb 3d6a2051 3bedd0b8 be55f588 3f0dabc4 3e85a072 3e2b9ea9 3e0d9010 3d822441 bd9ed9f3 bde19a0e be519ecb 3eb0e4b4 bcd0c688 3e54ecee bd796dd2 bdd51f76 be95f6bc bb7da47e bd398c82 bce6c5c8 3dd59822 3dc1f7a1 bdbe801a 3cabc257 3e409ec0 bd97561c bdd02894 3e46247f 3c5e2cf2 3e243fc5 3de91ffc bc5b2f8f bea056d2 3d8deafa 3e7d85a8 3e9e89b5 3e06d139 be528816 bebf7365 bebe4141 bbe47b0b be872ef5 3e1647e6 3ca8529f bb3d360a 3f16d4e0 bd3eab77 bdc8c379 3e1a1f69 3e26e857 bd3ef082 be2e275d bc216736 bdfb4de8 3dc24d8c 3e766386 3e3cb99c 3d29c417 3e899db3 3d79b94f 3e9d3687 be206ae4 3dd128c0 3dccf965 3d4c8729 bec6d15a 3cc2aa88 3e8328fd 3dd40d7b 3e91afe7 3d903b86 3d1b012d 3dd6a49f beb23315 3e18e9da bbaf5286 3e88efef 3e043e35 3d600388 bec87bd3 bec76008 3d202772 3e7dbe23 3e1927c3 bd8829c7 bf27e5af bf0f9a6d 3c109ee1 be9a5e1a 3d5a8990 3e11c495 bd91b586 3ce0c7f6 bbd9ab7a 3e0e7759 bd06b461 3ee2b0ea be1f199c 3ed56460 be222576 bd18d86e 3bb39cac 3e8aaaca 3e4e0e64 3eae73b5 3de01f26 3b3f0194 3e008673 bd3d2573 3f6670b0 bd9d8798 3dc81822 3efc0042 3e486038 bc6f52fa be1b80b5 bd410e6e bde40b9a bd87db0d 3e648ab3 bd5b4d43 be1e4f1b bd7f6328 bc910037 3d705fd6 3e4fa8e7 bd7096f8 bdc43953 3dde33a2 3e693e89 3e16b856 be328c4f 3cbd65b0 be44fe23 3e782799 3dd15950 3e4b6330 3e717c7e be5f4068 3e685db8 3e59a0e4 bd4494f5 3bd520a1 bce6a825 3e57bced 3e0a7734 3de08fb1 bc2d096b bcdff223 be69e506 3df885b7 bd1481d4 3e2906fc 3d92c60a be83e285 bd3f798c 3dd06118 bddf6e29 bd0e1958 3c4b4fd0 be3445fe bed5be2a 3d8e891d be17ab89 bdd3cc6c 3e14eb42 bea54e67 3ec73721 3e094cb0 be8290e8 bd7ab656 bcecf3fd 3c495112 be21ba9f be2de274 be8261af be45c3a0 3c9eb030 be4c0ad2 bdd717eb 3d301807 3d296e35 3d561807 bea46af6 bda9112a beef0bd3 3e154291 be605e3c bcc298e0 bda30778 bc5cf119 3e8632b0 bde3a791 3c12d307 3c2da0f2 3e83855e be348dd8 3d8bec25 3c0ede47 be4db56b bda0f523 3e7f26ac bccf629f 3e2b6225 3dd485c0 be556520 3d5b3e3f 3c8e01c4 3ca79523 3e162c07 bdeee4f9 3d1e97f8 be6cb4c3 be23d084 3dbc11f7 3c853810 3f0c15f6 3c3f5377 3d8a9aeb bd0dea0f 3e1d2130 bd8a74ad 3b40fd55 3e94c231 3eb2c91c bc088b96 3e99e232 3dc14900 3e0ceb30 bcfb9f20 3e4a9bac 3ba58d26 bd11bb6b be115c48 3cbe9758 3d52707e bbd778da bde4eecd bd232d53 be0c3e24 3e31fa89 bdc1a276 3e14b297 bd499e35 bd04ba9a 3da7486f 3d9aab81 bd2aa0ad 3ed42edb ba80e5db bd4e3d25 bed146b3 be9ef6cb be37673d 3e1eff1c 3ee6f8bc 3de4b810 bebc8b9e 3e5897ae 3e1150de bde6ce24 bd2deeb2 bc94cbf3 be34d993 3df27a24 bad7218b bdbfa1e1 3d417904 bd4fe8f7 bca2e818 3d65071e bd803554 3e066e3d 3d337d8f 3da6373a bdd0e778 bd383b87 be260c07 3d8edc15 be0bc4b7 bd9674b8 bdd05c70 3cba58d3 3d1e94b1 3d109b43 3ea52f22 3e978542 be9dd965 3c655183 3e31e648 3c73490a bd4b44ff bd924941 3ccafb06 bdfde5f0 3d993af1 be5159ec 3e8c6d04 3b021ede 3e02e08f 3c45c04a bea64fa1 3e47983a 3df1df21 bd23c5f3 3cc23b9d bda6fd52 3e8eb526 be4c7621 bb3434c7 3cfb1a54 3d493bb3 be3dcf9d 3e014510 bea934f5 3da36784 3d6c2834 3e4fbe10 3e101246 be6298c9 3cebc7ea 3e033b13 3e4ce39a 3ed2a767 bde3ecf6 be42359d bdb1e77a bd5c2615 be9b74f4 3da108b3 3e842629 3dc7b259 3da44556 3e608b4b bdda7d3b 3e00fe96 bc46ec2b be3c03ab bd23b25b be07ee57 bb35035f 3ea87fb5 3df6a5da 3c38cc37 be2e8a26 3d496024 be827fef bcfc28fa 3dae9098 bd203cd9 3d7adb36 be33ab98 be0c555a 3bddafd0 be3b2070 3e4f02b6 3c835782 3ddecae8 bd8c1ff3 3daff9b6 be4bef2c 3cbc45fc 3e2f30bb 3c607e7d 3dcfad92 be1661b2 be13c352 3cb7271f bc74bda9 3e1c4002 3e1ed248 be876386 bb7a8bb5 3e715970 3d9e085f 3de63221 3e13e7d3 3e19471d 3e70e1ba bd0cbd29 be42a76a 3d6ff07f 3e0956fc 3e560048 be86a3cc bddb4434 3dcd11b5 bead51e8 bef237a3 3e13c66b bc9541f5 bd9b767c bd52a29e bb351bf0 bc92b3cd 3dc17622 3e903867 3d3b9fb8 3d39e7b1 bdd3300f 3c288bca 3d9bba66 bc2a13be 3e046cfb bc769282 bd3e1c98 3dbbf855 3d5bae53 be80069a bcbc08d7 3cd3d725 bbdf4011 3de32858 bd1e5dc2 3dd9956a bdd725f9 bb4421a0 3e2528f9 be27e0df 3ebd52e3 3e948d20 bd7e8640 3e331163 bd959445 be4d55b3 3e698e2f bd97bc3f bda90071 3e8453d9 bd8a5842 3b4e5d11 3ea6614d be3f3390 3d51cadb 3e42ccda be249f15 3dd1ddd8 be08a30f 3e7ce776 3e19233c bd7424b2 3d41209f bdcaa0ee 3ccc98e6 bc22b882 3e46544e 3dcb1a11 bed3ffb1 bdd1fe44 3df1c2a7 3d7b8c55 be59102b 3e2fce02 3e175e56 3da2446f bdc193ae 3e3f103a 3dbf7934 be74c9f5 3cc69310 3e1af99d bd608e9f 3e27e40e becc97c8 bea7554a 3e257b2f 3e1b11c3 3d87e041 3d0ee2ad 3e7911e0 bd0021f1 3ddc8ab3 bdf8e228 3d22a538 3e1c395e bbba0378 bd852ac4 be61af01 3e037277 3de1cc32 be946ba8 bea71e87 bea09f56 bca49ec4 3d375128 3ae33173 3d76f945 bc7cbd30 3e1b28cb bdc3a9cc 3d47691b bdea1c55 bd92b570 3eaeeed2 bde36173 3e246383 3e6eb390 3e33bd5c 3d0162aa bdffb56a bd1677ef be057600 bdf77335 3e4233ce be76e540 bd63e1c1 3d44affd 3ea9248a 3da1a18c bec093d2 3d82b54d bdd347b4 bd8331a3 bd9a17f6 bb28e1d3 bda09d62 3e5e594a be7b01e6 bb68ccf6 be9c7956 3d7c203b 3d5b5dcf be05aff5 3e08e348 3c22336f be60432f bde32d57 bd3275a7 bdc43bea 3d393501 bc99fef5 3d0cae3b be08fd7c 3e23ddd7 be2e1203 bd6f20c4 3f03bd66 3aa7a368 3cfdbba0 3e9f039e bdba9977 3d445897 3dcea2cd be89d044 3ddde30c bdfe4922 3ec326ab 3e024e60 3d87105d 3d97c3ea 3d3679f4 bf806080 bddd178a 3d37a2a1 bddc42d6 3d371d17 3dd4fdae bd406780 bcd69580 bd937004 3beffcb7 bd5355be bdf94184 3e2bd629 be27001d bc0d46d2 be15a942 3e1ca3a7 bec3a943 be288b01 bd3900c8 3dd9d69b bdad30a4 3e3f0992 3e837dee bd31bcad 3e8e0f2f 3dcdee80 3e11bf6c 3e273735 bd05dc2a 3d8ab39c 3d32736a be0716a5 be416af8 bec40344 be1e656a 3d677691 bd6b63e4 3e9be346 3d96b158 3e7fedf7 bf37544d 3cbf5c77 bd1d7624 3e54b1d0 3ce8065f bd717481 bd47dd7f 3da4e850 3c803d3b 3d7b98b2 be0d07b1 3ce4b780 bc9f1063 bc382bc3 bcef6e2c bedfd419 3e4b8fbd bcc37b70 bdfa6c95 3d235b44 3ca71f97 bcb43921 bd5354ab 3dfacbb1 bdf2ec8f bc11448d bd910798 bb346683 bdec030a bd4cb4c3 be1870bb 3d808063 3e8d4a35 3dc7740a bd03bd27 ba290c72 be361af7 bd9fdfdd be0ba8f8 3d8ff017 bd8375ee bdda0c07 3db27b50 bda6e1a4 bea64489 3ebb6175 3dbc2aed 3d78da8f bcfa2cf9 3c89f00e 3e9984fa be5b4b13 3d57353d 3c9b058a 3d08d7f8 bdb476e5 bdfd35c5 3dc1a07d 3e2a2b71 3c919fad be013968 3e0ca227 bebb31ab 3dc16e7a bf12b92c bc235474 be037282 bd0b6829 be3b4b88 bdd05495 3e863bc7 be040308 3cf324b3 3c812696 be0dd3ed 3cd3a643 bcbcfce3 bdeb726c bd91bc8d bddadc07 3d5f17b9 3d47fabf bde49839 be805008 bcab0bc9 bd43c211 3daece34 3d39579e 3df139f8 3e06ff37 be0d9f1e 3df14279 be220849 3dc3f3b1 3da7b733 3e21e99a be01c8be 3d71cec1 3cc24a57 3da54af2 bd93da37 be83f22a bd3701b1 bcf6e980 bd2e463d 3dcc6e13 bdde1416 3d941c52 3e171bed 3e00d4e3 bd042edd be61737e 3db85d8f 3de253f8 be1fe6ee 3d97c1bd 3ea8c167 be25f77c 3c3d5b4c 3dd9acbf 3c5cc9ee bd1d0102 be8acfd6 bdb27418 bd64d8c9 bcda50e3 bd802945 3e0dccb7 be49b40b 3e0e0b1d bd3b72a1 3ba5f5b4 bc9684ba 3d47c9f8 bcdfb0b9 3e45f147 3dcacabe 3e2872a0 bd5d4a0d 3da84741 3dad2054 be75f886 3e3121bb 3d922aa9 bb1af3d4 bdfc9241 be38611a 3e46000f bdbb802b 3d1a09f5 3aca54b5 3de7b5b4 bddca0c5 3e5619ac 3d9343ef 3da20a8e 3e3efe24 be549896 3e424d65 3e0cf037 be985382 be548755 3d1a7813 baf857d3 3d92291f bd96a901 3e2ee292 3dc8f0d0 bda23b3d 3e50f178 3e5a087c bc12a6e9 bdcfccaf 3c4d513d be4246f3 bc906602 3dab00c8 3d0e90c1 3e0f14a0 be8b799d bddca484 bd21713b bd1c84ee bde636fc 3d7502e9 bde39b4f 3e085594 be60024c bd8aec37 3e59c3ed 3d832061 3c942d0b 3e0bf831 3cf6361e 3cbf2052 be084a4c 3cca97d9 be813729 be011e09 3ce6d0d2 be1ec347 bcb25949 3e15e897 bdf7f5e6 bdf96fee 3e6feba7 3d6710d9 be86e885 bead487d 3d0ad3d4 bc680638 bdd2dde8 3d99f5a6 3e92a056 beafa651 bcff669f bcb4e7af 3eb5c7b9 bd28d5b3 bd71f006 be017b85 3d5f4a4d 3e405e89 3e486478 3ba388aa be01ffe4 3e26c5cb 3ee1d39a 3e3e43aa bd57793b be7bf812 3e1b3d48 bec0f8e6 3dc131c2 3e1b1bb9 3e470558 3db4ee00 bd58c3e9 3cb240ff bf1a99f3 be0d1612 3e2c0515 bdd907b0 bdf87ab2 3e0c164a be7a3009 3e31c93f beb382f2 3ddd2df8 bebf79c5 bb84c91e bea745a2 3cf019c6 3d86c15a 3e06c0dd bdb220dd 3d8ee9be 3e0c3ed8 3ddc1de2 be231227 3d937158 3d52c0bd be5273e3 3d4559e8 be947d77 3d4d4f57 3d347d46 3d984872 3d178144 3e22d32b bd894c7f 3bf7e37d 3d4a2a51 be0946e4 bca558c2 3d48d0b6 bdab0df5 bd24ec18 3dcab0ab 3e9351b7 3d37a82b 3e9f3f36 3d30264e 3dbd1d2f 3d3fd2c9 be20bf5e be68362f 3cbf1778 3dfc3713 be1a3ca0 3e764d12 bd8101dd bd63fbac 3dd2df64 bd91abc9 3e808293 3db17100 3e6223c9 3d42cc1c 3e73bb82 bd441cec bb09d340 3d1b75a3 bca6717b 3e0fd15d 3a72ed62 3e85fb30 be8d2960 bcf7055f bdafea1b 3d2d4bc7 bdedb98b 3d84cc3f 3daedded bc5d8cb9 bd1dfa52 bd477ef0 3e4895c2 bbb530d1 3dae4319 3e5f2361 3cbbc204 bc44510b 3e1c1a25 3e6761fe 3e28f493 3d8d7c37 3e2764dd beb5dd5d 3e43dfc0 bea1aabb 3c9bd496 be0a3bf6 bdc1e85f 3e80a1bf 3e66e5d5 3db3d742 be16f8fe 3db1fdbc be339c9e bdd02d5f 3e59e1de bd009013 bd7304cd 3e0360a4 bc88bead 3b36403f bcd5bfc1 3e40b37c 3daeb87e bd983b01 3d3d9055 3ce3f9a7 3dcc2c90 3d7eb50c 3c997c1b 3e8043cd 3da68138 bdbd3ffa bcb34d4e bdb6b533 bd3341b0 3e0258d5 be38acfb be42cf4a bea547b8 bdc22dbc 3e326b3b 3e085845 bdd11a67 be254f9f be972286 3d1b1bb0 bcdd4985 3d80189d 3cba1ca8 be0b13b4 bd5ee565 3d8c36d1 bd497fba be0fcbbe bea0644d bdf542ad bd211986 beb746b7 bd3c2ca5 3ce4deb9 3c8f8022 3d7c8620 3e63f728 bcf1b86e bdd0a981 bc8de6b4 be4a8777 bdcb98a8 3dd947c8 bbd8d809 be44ce06 3d958ada be20b67b 3bda580d 3e815765 bcc301f1 bb0c6efa bcdb9900 3b5de2ab bd238476 3e36705e 3e2c23d7 3d3cdb8c bdb2d639 bd81fc2b bd0cba88 3d02bffb 3d8727e2 3dbb52f3 bdb2f381 bea48bd8 bd8396b7 bd63f1ba 3d5abfd3 3cc71b94 bc7e9a49 3dc4aa2e bcb029db bdf9e0f4 bd77d71f bd1da913 3d260b26 3e08c1ca bcd0ef07 be26595c be04b788 3e1d2950 bce35ac6 3d77539d 3ecb3de4 3ce6c853 3e186c8f 3e790200 bdfe99b4 3e0059f1 3bd82355 3ddaf79e 39be6b6b bd58df4d 3e0682e2 3e0e6796 3d332639 3d51c66b bd3a19c6 3e41298e 3c8411fd bc968972 be57fed6 bd90fe95 3dd3ee03 be11acfe be6e751e 3e608979 3d2054e7 3a6549d4 be065383 bcbd30f5 be83b254 3dfe6b9f bd5da04f 3e727bd6 3de194c9 3d4413a2 be2f5a93 bd17ba44 3d10fe50 bde75c9d 3ddddc07 bd9016ce 3e53cb98 bc831030 bd892c4c be9da5a6 3e07fc31 bdbabe7b be12d6da 3dcd4190 bd91c312 3d355545 3e791d4e 3d9490d1 3e14c280 3d3731ff 3d016f28 bcece836 be095036 3d642e70 3daf71a3 3dfbb1c3 bda98283 beaf56d7 3c349a85 bec2a49e 3e81b1ac 3e96dbf4 be30b10c be169abc 3d8d60f3 3b895f99 bd2571d1 3d99246b 3cebce78 be7f31fb 3bce2a63 3dbd2e90 bdafcab0 3d0f5ce9 bdab9ae5 3de66619 3e1fff20 be0d6e9a bc0aacd1 be1da846 be9553e2 3df2842a 3bbc328d 3d8debb9 bd68259b be55208f bded9ff7 be50379d 3ee3e73a 3dbb3895 3a025b4a 3d0ba6f6 bc3d072a 3dcb6399 bd05a0bd 3e5055b6 3cd82b10 3e973b87 bdd78fa4 bc2d38b1 3d680679 3ec418d5 3b8362e7 bc0b87d9 3ddeed43 be3bb0f7 bd608254 3ee2152c bdec6c2a 3e515286 bd6cc4a6 3c17d177 bd29fb25 3cf4b4d7 bea17f14 bdd2be5e 3e4e10f1 3dbf467c 3e2f339d bebb099f 3e2a6af3 be1119f5 bce86041 3eb17d85 3e0a0a0e 3e3fbda8 3d82451e bca214d9 3d5d854c 3c0fbd65 be34889b bd58f5bd 3ddb1f22 bcac5cea 3dc8729a 3e1ea59e be3db5f9 be05b8e4 3c532c26 bcec27e3 3df89c03 3e6eef5f bda96640 bd9a7c4e be12d03c 3b3dfdb2 bdf294e6 3e341814 3d82b6d4 3c914efc 3b91c361 bec1eb52 3cdd2727 3d8e3774 3e111e75 3dc23417 3dd4f420 bddc665a 3da26cd2 3e5b923c be86489a 3eb1ff45 3df82363 be373043 3e378905 3e2bf1d3 beaa639a 3bcc0155 3d03f110 bc99f239 3bd7794c be8916f5 3dcc50bf bdca3499 bbdb051a 3e56f97d 3e169fe5 3daea829 3d39c8ae be0a9dc2 be936c92 3e9af1af 3d90ccc7 bdce2f8f 3c715dac bdc40225 3c96dde6 3d867792 be39e175 bd08e3ea be5f2e1d 3e0273fe bbb46a0c 3e51c103 3e285401 bdb37625 3dc521db 3e36426c 3df8a942 be9b4ab4 3c40247e bd61217b 3e28683e 3e87b2e7 3d511a14 bac1c71f 3dc2ae44 be7d6ab9 befe69cd bde84425 3e38f27b bdefd40b be2bab0d 3eb989b3 3e990bbc 3d9756ab 3cc59c48 bdd647cf be9f9218 be1b7486 bd5756b3 3d5452a9 3df6985a bd1e048c 3e124ea3 3db36f02 bd5a0e90 3deb3581 bdf953d0 bcfb806a bd1cdca5 3dac0848 be0b6295 be529009 3e0f247b 3cd51ca7 3de4339d 3e28fffe bd94b5a4 3ebb9bb2 be03a780 3c944252 3e4755ea 3cb9753f be037fcb 3e907e14 bc052778 be05dc0c be9e6b5d bdc29eff 3e2468f5 be99c727 3b79aa0c bdd71178 3e6ca87b bdc464a9 bdd2f491 be2b9b44 3d27ff5b 3e97bed5 3d935550 be715502 be23f65c bd74d98b bee0df5f 3dfb2a58 3d9dbd8e be013af1 bd432009 bdc2353e 3e13dfbd be03864d 3decd4c0 3c6da6c3 be39881e 3e94bc3c bd54b01c bd89beb9 3d68e78c bc7ea663 bcc638dc 3d56ee98 3e96ce51 be600a58 be1b6bb5 3c793947 3e537b3c 3d16f8be 3e5ba6dd 3eb44870 bdb636ee 3d2b55c6 3db0cd02 3dfa1f38 3e9ae674 3e0a3f61 be946f60 be233598 3d93b51d 3dbc925b 3df73b69 3ba701cf be149c29 bd672c4e be2ac355 be4c051f be533061 3d0565b8 bebd2c51 be75ec8b 3e01ce7f be3ffbc6 3d9378b3 3dc3d173 be72480d 3e8635ba 3ddb0b4d bdec54f4 3da5b782 be4e38b9 bd8cb101 3dfd642d 3cdeed30 bd687aa5 3cdcc3ca 3cebbbc1 3df92cc3 bd75771b be0aa2ef 3e096e37 bd1111ee bd532172 3e07ab75 becbbb77 bd0893ea bda99a28 3e2d9471 bda82896 bdc0ff26 bddc6ac2 3dd433c4 3de96ebd 3e697fc2 3dcd3f4f bd03979f 3c9ce34a 3dbb27d6 bde8a8ec b9054cf6 3c555c39 3db287e4 bdecf365 3d0c3223 3e4375a1 3e8ed110 bcdb0eae 3dbb6564 bddf5d8a 3e409391 bde6b2e6 3e1e7819 bdc8c8eb bdbfaa57 bcb81912 3c4183fe bd4e166e 3e356bde be0b1288 3dcf035d 3e28871d 3da850a8 3d184d31 3e042df6 bd1dc180 3e15172e bd8ef1ed 3d495be6 3cfa48f0 3e75ce58 3d93a70d 3e42e9f5 bcbbd467 be2e2eec bcc434a1 3dfecefb bdabf7a5 3db20243 3d6e48da bdd56d64 3da82d45 3e2415f5 3e8345c8 3d84d836 be343817 3d82e0ce 3e1a3dc0 3bd4db3b 3dc28a7c 3e8247ce 3d51b75d be8bfb71 3d487eca 3d15c5bd 3e2292da bdc22604 bdb328e7 3ca0d5e2 be63db27 be0687d1 bd6ea349 3dbcf6a2 bd099b48 3de3c0fc 3d131347 3dafef6a bd8aa845 bdf53033 3e0f1b01 bdb83e28 3e309d88 3c10dc9d 3e0a8f95 3cc9cb03 3c597fbd bcb35aae bddb5690 bcae2c88 bdb07ee1 3db8d2d2 3e5eb3a1 3b4c330f bd23cec5 be0ef7e7 bd2471ff bdaaee01 be3885f4 3d582af3 bdfc62dd 3dfa22a8 bd8d4f98 bd6873c2 be262b36 bdc3e51d be159151 bd312655 3e168d79 3df53eba bcbbeb1d 3e7af052 bcdd9412 3ccdff9a bca621d3 3e6ad2d9 3d1fdfe1 bddc1a83 3d25a39d be678720 bda55ee9 bb13010b 3e2e1c55 bcfac093 bdbf3710 3d97d4b1 be942e31 be130336 be5bc0e3 3e5f66ac bde17390 3ddb72d4 3dd5b3ac be2171f6 bda9b79e 3c0c6e69 3d94785e 3ce48385 bde27ba2 3e340e0b bcca1e6a be035f8f 3e0cfd96 bdb95a27 3e160800 3e824d25 3da40d80 bde3b1d6 3d1fcda1 3e4f7aa2 bdb7fdf7 3e4e21ef be106c69 bd310528 3e036ea8 bc1049f1 3e0b8809 3dff7844 3e16d3a5 3e0a4e70 3e8da888 be5c4aff be340d33 bcd12e07 3e86014a 3e30ce7c be9941cc 3d8c8780 be2f205f be3d3868 3e46510f be003799 3ca96425 bd368fef 3e96575f 3d8552fc 3dd029d1 bbbdad8e 3d35ebaf 3e26ba22 3d9e0aac 3e434c81 3d5c41b2 be348e03 bea4e214 bc856f9a 3d6b31e4 3e7f0d00 3d91c8cb bcc57b05 bd95e0db bec267bc 3e3dac59 3e59ad0a bd8eee0b bc42b685 3c677f18 bceff87a bda1d430 3e291352 be877db6 3db93742 bdf92e5f bdad151c 3c622f9c 3da9e7ad 3dc0a944 3d8fc663 be16f297 bcc562d2 3e16868f 3be57c2e be552215 be603904 3e0de03e bd877ab3 3dae03b5 3d1d06f7 3d584a9c 3da1b504 3d6c74f2 bc13e46a 3c51c2ea bc2831d8 3e05e9ec bcd4fa31 bde8f51b 3cf08a32 be54138b 3dc20fb2 3ea94c7d bd6b6444 bd32ef96 3cd06c11 3e55e167 bf07440d bde7c17c bd00a654 bcd30817 bdecf6ab bcd46896 be22ea36 3d13f2a1 bd46bd5d 3e9f124d bdc56de9 3d773e3a be9295d3 3dbf7f78 bca7e693 be31a55b bdd030aa bdc5f076 3e075d60 3dbfe91c 3e0e06d5 3e033c2a bd773d4c 3e9c7226 3db064b6 3cfc4a0d be042e16 3dca3cd9 be306ef2 3e41b560 bc875305 3d905c15 3dd99f65 be015948 3d887ca2 3cdb322a 3e5eac9e bd18bd94 be02bc39 bd89a954 3e29f5fc 3dfbcfc2 bcf52364 3da9ea7c 3e4d27a1 3d02e66c 3da70113 bddc18f5 3e0acce8 bcecba58 bdd40690 be2ca70e bd000c3d bdc8b447 3d9c0c94 3ddc828e 3e18392a 3da8b55a 3dcc2144 bc43d7f6 3e33cd37 3db473e3 3e082713 bd3589ba bde63fc2 bba64318 be0452e9 bc2457a6 bdbac0b5 bdf09df9 3d048795 be03a6ec 3dde7b53 3def0830 3ded0dd2 bd99e8a5 bcc0b137 bd064d23 3d20e391 3c2699f6 3d196045 be294d61 bcdc5c24 3ceac16a 3dcaba8c be089603 3c8243cd 3e87f0dd 3e1004f7 3dc4af0b 3ddcdc26 bc9490f3 3e4fa2ac 3e20a5c6 bd04f19e 3d0b37b4 3bdff1ca 3d486ccc bd1a4412 3e8b9d35 be48819e 3d11bd60 3d7affd7 be1848e8 bdde00f8 3e02c3e0 bd033f68 bea55410 bd503ec3 3e034003 be3c826f 3e563ebe 3e56394c be0fffe2 3dfc2270 3e5116c1 3de21cce 3e47233a 3d23190a bdb2843a 3db63804 bd88221e bdd88be0 be0d6eec 3dcc7c52 3d47adb6 3e35039a 3d9c492f bd1a4d0f 3e8311c8 bdf4a0ed 3e9eda70 bd92c16f 3e4a7b5c 3e290dc5 bd0a0709 bd6c5766 3c71e65b bc2808a3 3e1557af 3ebc5e75 be106514 bc6b61c0 bde6a176 bcda40cb 3e4b6850 bcc1ead7 3d049e09 bd3f8b37 bc466a5a 3e044787 be1c3555 3da285c2 bdf53a60 bd2d0677 be22cf59 3de67f36 bd7a30bf bca8867f 3d934e11 3c95b7af 3e11ce1d 3c9be7fa bdfb2263 bdafdc9e 3c8e4e25 3e2f81f9 3d45437a 3c94cb37 3dd60141 3dae9bdc be1aebff be94cf71 3c50a7a5 bcf9e949 bbff2a5c 3d53e38d 3ddeee06 3cb40caf bc74145b bce5f486 bd0a74a6 3e2f07a6 3d4559c5 bae3f8ef becc480a 3de72a83 bdf8cf33 bdc18f11 bc99522d 3c0c69ac bdf38d14 be72edbc bcec14d9 3c02485a 3d80f016 3d10770e 3d08bf44 3d2dd91c 3d52bf65 3daa46d8 bd8679e9 3dee8bb3 3c0e2a51 3dc83d47 3d503d82 3d420c96 bd20ea98 bd11af4b bddeb4ef 3d9171dc 3e1ef1cc bb9ead6c bda3b46e 3e1c3654 bd08513a 3dbc0b23 bd93cc26 bd213323 be19aa53 bcde2b2c 3e0373fa bd813576 3da66c0c be0abdb4 3e5d241f 3c1b9800 be744c0c 3ccda751 3ece883a be80a271 bd257475 3c954af0 3d2833cd 3e372c9f 3dd6d80c bdd2378b be10747b 3d5c6468 3ea0cd66 bda1547f 3dadebfd 3b73b9d0 3e00a6aa 3d76b635 3e0406e9 3d60fae4 3e0841bb bd33c676 3e870e3c bdc73443 be64fcd7 3d109029 3e028b26 3d0d6596 3e1897e9 3d9fd8bf 3d222ba8 bcb76c64 3c7c8cc3 bdbad9fe 3cf44695 3dcd4401 3e1254a2 be1580a3 3eb22e35 3d81917b 3ca903ac be6f174f bdb433a5 bb650710 bdcbd8e8 3e35ef4a 3e923014 3dfd0173 3dcdd7e8 be81011f 3ce4cb97 bda9db11 bc31f981 bd006980 3bb4713e be3cc875 bb92ae25 3e04e849 be5a7fd8 3d6bea55 3b9ded4e bda44981 bdb79928 3e4b359b bd2f34e7 3d740274 3be87916 3dffbd64 3e28aee0 3dcafcbe bdec0522 be0a4175 bce35061 be80a8c2 3de640ac 3dcd69a6 bdd3a241 bca72fac 3e43d8e2 3df1677f bd0bee71 3d43551c 3e001c4b 3e553939 bca4bdb2 bd4fab5a bcf2cdfd 3db0bab3 3e777984 3cf1e258 3d5685da 